[PAD]	0
[UNK]	0
[BOS]	0
[EOS]	0
[SEP]	0
[CLS]	0
[MASK]	0
▁t	-0
ou	-1
he	-2
▁a	-3
in	-4
▁w	-5
re	-6
▁I	-7
▁s	-8
ha	-9
▁y	-10
on	-11
▁you	-12
▁m	-13
▁the	-14
▁d	-15
it	-16
▁b	-17
ll	-18
er	-19
ing	-20
▁to	-21
▁c	-22
an	-23
is	-24
hat	-25
▁g	-26
▁f	-27
or	-28
en	-29
▁l	-30
▁W	-31
ow	-32
ve	-33
▁n	-34
nd	-35
▁o	-36
es	-37
▁p	-38
▁T	-39
ot	-40
..	-41
ed	-42
et	-43
om	-44
▁Y	-45
ar	-46
▁th	-47
...	-48
▁he	-49
▁it	-50
st	-51
▁h	-52
ay	-53
▁in	-54
▁of	-55
▁ha	-56
at	-57
▁me	-58
▁be	-59
▁k	-60
▁You	-61
▁S	-62
as	-63
le	-64
id	-65
▁A	-66
▁H	-67
gh	-68
▁that	-69
▁and	-70
ld	-71
▁on	-72
ut	-73
ck	-74
out	-75
ke	-76
se	-77
▁we	-78
▁do	-79
im	-80
▁u	-81
▁M	-82
ght	-83
al	-84
▁is	-85
▁e	-86
ver	-87
oo	-88
▁N	-89
--	-90
ri	-91
▁kn	-92
▁B	-93
▁for	-94
▁D	-95
▁The	-96
ce	-97
▁know	-98
ad	-99
▁re	-100
▁li	-101
▁C	-102
▁don	-103
▁st	-104
ust	-105
▁your	-106
▁an	-107
▁What	-108
▁was	-109
ell	-110
ome	-111
▁have	-112
▁go	-113
ould	-114
▁this	-115
ir	-116
▁--	-117
am	-118
▁not	-119
▁O	-120
ant	-121
ith	-122
ch	-123
ill	-124
ee	-125
▁my	-126
ent	-127
▁j	-128
▁with	-129
ly	-130
▁It	-131
▁what	-132
▁L	-133
all	-134
▁G	-135
▁can	-136
ion	-137
ct	-138
if	-139
ro	-140
hing	-141
her	-142
▁He	-143
▁get	-144
ea	-145
▁are	-146
▁ab	-147
ho	-148
▁ne	-149
▁out	-150
ink	-151
▁like	-152
▁want	-153
▁about	-154
▁J	-155
▁all	-156
ra	-157
ter	-158
ry	-159
▁got	-160
▁as	-161
▁just	-162
ic	-163
▁him	-164
ake	-165
▁P	-166
▁up	-167
▁No	-168
one	-169
▁F	-170
ight	-171
▁here	-172
▁We	-173
▁did	-174
▁think	-175
ur	-176
pp	-177
ie	-178
▁sh	-179
▁at	-180
ook	-181
un	-182
▁R	-183
ood	-184
▁so	-185
▁That	-186
▁any	-187
ore	-188
our	-189
▁there	-190
▁And	-191
▁they	-192
▁wor	-193
right	-194
op	-195
ack	-196
and	-197
ind	-198
hy	-199
il	-200
very	-201
▁su	-202
▁E	-203
▁one	-204
han	-205
▁but	-206
ive	-207
ess	-208
od	-209
▁her	-210
us	-211
▁see	-212
▁whe	-213
▁some	-214
▁right	-215
▁going	-216
▁no	-217
▁de	-218
art	-219
▁if	-220
ge	-221
rom	-222
ally	-223
▁But	-224
ig	-225
uck	-226
▁say	-227
▁al	-228
au	-229
own	-230
ain	-231
▁r	-232
end	-233
ist	-234
▁us	-235
ime	-236
est	-237
▁Oh	-238
▁sa	-239
▁would	-240
▁Well	-241
▁she	-242
▁man	-243
▁...	-244
alk	-245
▁pl	-246
▁lo	-247
ong	-248
rou	-249
▁or	-250
▁who	-251
ame	-252
ast	-253
ven	-254
eah	-255
red	-256
▁gu	-257
omet	-258
▁thing	-259
em	-260
▁could	-261
ers	-262
▁now	-263
way	-264
ul	-265
▁his	-266
ab	-267
▁How	-268
▁tell	-269
▁were	-270
os	-271
▁from	-272
ol	-273
▁time	-274
▁They	-275
▁Th	-276
▁been	-277
ine	-278
▁back	-279
ear	-280
na	-281
▁-	-282
fe	-283
▁look	-284
ate	-285
▁them	-286
ard	-287
um	-288
ak	-289
▁Yes	-290
ice	-291
▁com	-292
▁ex	-293
qu	-294
ick	-295
itt	-296
▁se	-297
▁will	-298
▁Yeah	-299
▁mean	-300
thing	-301
▁good	-302
▁somet	-303
ation	-304
lf	-305
▁Whe	-306
ure	-307
▁too	-308
▁had	-309
▁talk	-310
nt	-311
▁off	-312
▁She	-313
▁didn	-314
▁So	-315
hi	-316
ous	-317
▁Why	-318
▁con	-319
other	-320
▁Do	-321
are	-322
▁when	-323
el	-324
▁way	-325
▁"	-326
▁sp	-327
▁something	-328
▁pro	-329
ort	-330
▁K	-331
▁how	-332
▁int	-333
be	-334
▁never	-335
▁ag	-336
▁take	-337
▁come	-338
▁need	-339
ody	-340
▁This	-341
▁Don	-342
▁every	-343
kay	-344
▁tw	-345
▁Mr	-346
ble	-347
ose	-348
▁down	-349
▁'	-350
▁call	-351
▁work	-352
ittle	-353
▁If	-354
res	-355
▁happ	-356
ause	-357
▁make	-358
ase	-359
ty	-360
ap	-361
▁over	-362
ff	-363
onna	-364
ide	-365
▁fuck	-366
▁little	-367
ew	-368
▁Not	-369
▁gonna	-370
eop	-371
▁more	-372
ace	-373
ber	-374
eople	-375
ought	-376
▁should	-377
▁does	-378
▁let	-379
▁guy	-380
aybe	-381
▁our	-382
▁said	-383
self	-384
▁v	-385
body	-386
oy	-387
▁There	-388
reat	-389
▁am	-390
▁St	-391
ect	-392
ag	-393
</	-394
▁bet	-395
▁than	-396
▁really	-397
▁kill	-398
▁tr	-399
▁mo	-400
iss	-401
▁<	-402
▁has	-403
▁mu	-404
▁love	-405
▁won	-406
▁by	-407
▁people	-408
cause	-409
nder	-410
ther	-411
▁cl	-412
▁qu	-413
oney	-414
▁then	-415
ree	-416
▁U	-417
th	-418
▁happen	-419
▁much	-420
▁only	-421
▁day	-422
ud	-423
▁Where	-424
ving	-425
▁bl	-426
eel	-427
▁af	-428
ound	-429
▁where	-430
▁Who	-431
ity	-432
▁very	-433
▁year	-434
▁Is	-435
round	-436
ite	-437
▁why	-438
▁V	-439
ies	-440
orry	-441
▁under	-442
▁Now	-443
▁sc	-444
ny	-445
▁lea	-446
eep	-447
▁en	-448
▁co	-449
▁Just	-450
▁wr	-451
ough	-452
lie	-453
▁ro	-454
▁My	-455
ks	-456
▁thought	-457
▁two	-458
lp	-459
▁other	-460
ob	-461
ta	-462
▁even	-463
▁le	-464
▁sure	-465
pl	-466
▁feel	-467
▁anything	-468
riend	-469
ait	-470
▁give	-471
▁doing	-472
ue	-473
▁into	-474
▁night	-475
▁ask	-476
ep	-477
ull	-478
fore	-479
ting	-480
▁find	-481
ning	-482
▁again	-483
irst	-484
ass	-485
▁try	-486
ather	-487
ac	-488
▁long	-489
▁help	-490
▁life	-491
ady	-492
▁ever	-493
ne	-494
▁Let	-495
row	-496
ish	-497
ade	-498
▁around	-499
ire	-500
per	-501
ment	-502
ran	-503
ret	-504
▁Look	-505
▁Are	-506
▁before	-507
▁God	-508
▁told	-509
ways	-510
▁money	-511
▁belie	-512
▁br	-513
▁All	-514
ave	-515
lease	-516
▁gir	-517
get	-518
▁things	-519
▁must	-520
▁im	-521
iz	-522
▁put	-523
▁In	-524
▁still	-525
▁Did	-526
▁Be	-527
ool	-528
age	-529
▁believe	-530
▁better	-531
▁friend	-532
▁car	-533
▁sorry	-534
▁kid	-535
▁rem	-536
ci	-537
▁kind	-538
▁po	-539
▁hu	-540
▁years	-541
▁Okay	-542
▁un	-543
▁last	-544
act	-545
ond	-546
▁well	-547
urn	-548
▁always	-549
▁ar	-550
▁away	-551
▁Hey	-552
▁girl	-553
▁Then	-554
▁first	-555
▁sir	-556
▁old	-557
▁Than	-558
▁these	-559
ft	-560
▁Maybe	-561
▁part	-562
ord	-563
ress	-564
▁keep	-565
▁place	-566
▁care	-567
▁after	-568
▁min	-569
▁real	-570
isten	-571
ried	-572
ise	-573
▁their	-574
ix	-575
▁name	-576
▁Good	-577
▁cour	-578
▁cou	-579
ng	-580
▁chan	-581
▁home	-582
▁lot	-583
stand	-584
▁Ch	-585
▁those	-586
▁.	-587
▁ass	-588
▁whi	-589
day	-590
pt	-591
▁Jo	-592
▁new	-593
▁big	-594
▁sw	-595
ach	-596
▁nothing	-597
▁Can	-598
atch	-599
int	-600
ember	-601
▁hand	-602
ory	-603
▁okay	-604
▁bad	-605
▁hell	-606
ouse	-607
▁start	-608
▁live	-609
har	-610
▁doesn	-611
▁When	-612
▁Your	-613
der	-614
▁because	-615
▁sm	-616
▁bu	-617
▁boy	-618
ary	-619
man	-620
dd	-621
sp	-622
▁mar	-623
▁shit	-624
▁play	-625
▁el	-626
ip	-627
▁minut	-628
▁understand	-629
▁ac	-630
▁great	-631
▁wait	-632
amn	-633
▁hear	-634
▁dr	-635
ater	-636
able	-637
▁run	-638
▁isn	-639
▁dead	-640
▁dis	-641
ever	-642
old	-643
▁bus	-644
▁supp	-645
ful	-646
▁own	-647
▁course	-648
▁For	-649
▁Come	-650
▁fl	-651
▁might	-652
ike	-653
▁sec	-654
▁else	-655
▁wouldn	-656
▁made	-657
ock	-658
▁Re	-659
▁wrong	-660
rough	-661
▁show	-662
▁act	-663
▁guess	-664
▁talking	-665
og	-666
ian	-667
tain	-668
▁stay	-669
▁everything	-670
che	-671
▁happened	-672
▁wom	-673
▁mind	-674
aw	-675
▁per	-676
▁Sh	-677
▁stu	-678
▁che	-679
atter	-680
▁leave	-681
av	-682
▁wanted	-683
▁through	-684
een	-685
ence	-686
▁yourself	-687
aking	-688
ons	-689
▁pr	-690
ars	-691
ign	-692
▁enough	-693
▁id	-694
▁remember	-695
oss	-696
▁har	-697
▁done	-698
ren	-699
▁gotta	-700
▁Al	-701
?!	-702
▁head	-703
▁ain	-704
▁cra	-705
ious	-706
▁tra	-707
▁job	-708
."	-709
imes	-710
ions	-711
ife	-712
▁imp	-713
ict	-714
▁house	-715
ger	-716
ps	-717
▁came	-718
▁three	-719
▁getting	-720
▁wee	-721
▁left	-722
▁wasn	-723
ub	-724
▁world	-725
ath	-726
▁fucking	-727
my	-728
ia	-729
▁maybe	-730
▁room	-731
....	-732
ple	-733
akes	-734
ail	-735
iness	-736
ms	-737
▁An	-738
▁father	-739
▁another	-740
ance	-741
▁Get	-742
rest	-743
here	-744
▁being	-745
▁saw	-746
▁Go	-747
mer	-748
▁yes	-749
▁plan	-750
pen	-751
▁mother	-752
▁knew	-753
▁sho	-754
ner	-755
ost	-756
pe	-757
▁mor	-758
erson	-759
oll	-760
▁someone	-761
▁trying	-762
▁matter	-763
▁meet	-764
hn	-765
▁guys	-766
dy	-767
...?	-768
▁nice	-769
▁ra	-770
▁rec	-771
ince	-772
▁went	-773
enty	-774
▁ad	-775
side	-776
ctor	-777
▁ser	-778
▁whole	-779
xt	-780
▁sl	-781
▁heard	-782
ark	-783
▁pret	-784
▁seen	-785
▁mon	-786
onight	-787
▁Hell	-788
▁dif	-789
▁coming	-790
orrow	-791
ved	-792
▁John	-793
air	-794
▁Sure	-795
▁stop	-796
ated	-797
arl	-798
les	-799
ey	-800
leep	-801
orm	-802
▁As	-803
▁sha	-804
▁looking	-805
osed	-806
ily	-807
▁fun	-808
eet	-809
▁Every	-810
▁hard	-811
▁same	-812
▁word	-813
▁turn	-814
ied	-815
▁app	-816
▁proble	-817
▁business	-818
▁On	-819
▁hour	-820
▁Right	-821
▁Some	-822
ru	-823
▁best	-824
ndred	-825
▁please	-826
▁Of	-827
▁fine	-828
▁killed	-829
▁hur	-830
▁idea	-831
▁quest	-832
▁walk	-833
gg	-834
▁Any	-835
▁haven	-836
▁ph	-837
▁gr	-838
▁used	-839
▁deal	-840
reak	-841
ible	-842
ually	-843
▁Tell	-844
▁Thank	-845
▁To	-846
oth	-847
▁tonight	-848
igh	-849
▁found	-850
▁person	-851
▁miss	-852
▁bit	-853
▁fam	-854
▁hat	-855
▁hop	-856
▁att	-857
▁pay	-858
ident	-859
▁Because	-860
ors	-861
▁Will	-862
zy	-863
ream	-864
▁Like	-865
▁cle	-866
▁many	-867
▁acc	-868
ister	-869
▁woman	-870
▁men	-871
▁called	-872
ye	-873
▁bab	-874
▁myself	-875
iv	-876
▁wife	-877
ax	-878
▁bo	-879
▁comp	-880
▁read	-881
ably	-882
▁Uh	-883
hed	-884
▁hundred	-885
▁ya	-886
▁son	-887
▁says	-888
▁Ex	-889
gether	-890
▁chi	-891
▁use	-892
▁1	-893
rist	-894
▁end	-895
▁morning	-896
▁may	-897
▁gl	-898
▁fin	-899
▁couldn	-900
▁pretty	-901
ical	-902
▁pol	-903
ans	-904
▁few	-905
▁sch	-906
▁stuff	-907
▁Please	-908
▁sur	-909
▁diffe	-910
▁dri	-911
▁pre	-912
aught	-913
▁war	-914
▁listen	-915
!!	-916
ready	-917
▁De	-918
ense	-919
▁One	-920
uh	-921
▁cont	-922
▁saying	-923
▁Cl	-924
uth	-925
▁des	-926
▁set	-927
▁Fran	-928
▁cr	-929
▁next	-930
▁together	-931
ves	-932
▁tow	-933
▁while	-934
ason	-935
▁already	-936
▁yet	-937
▁tri	-938
▁most	-939
ss	-940
▁ago	-941
bably	-942
▁rest	-943
▁tom	-944
anna	-945
pped	-946
▁Jes	-947
▁count	-948
▁without	-949
▁Dad	-950
less	-951
▁point	-952
▁cha	-953
▁huh	-954
▁Or	-955
▁Have	-956
▁week	-957
ild	-958
▁days	-959
▁minute	-960
▁ch	-961
ating	-962
ird	-963
▁school	-964
ont	-965
ations	-966
▁drink	-967
▁open	-968
▁child	-969
▁worry	-970
▁Br	-971
▁Me	-972
▁sit	-973
▁pick	-974
▁Thanks	-975
▁watch	-976
ins	-977
▁rep	-978
where	-979
up	-980
▁took	-981
▁sleep	-982
ract	-983
erest	-984
▁stand	-985
sw	-986
▁tomorrow	-987
raid	-988
▁exp	-989
▁alone	-990
▁wants	-991
▁bring	-992
▁Tw	-993
ired	-994
▁far	-995
▁Christ	-996
▁Nothing	-997
ower	-998
aut	-999
ntil	-1000
ah	-1001
▁Here	-1002
▁gone	-1003
▁friends	-1004
▁problem	-1005
▁crazy	-1006
▁five	-1007
de	-1008
no	-1009
▁mom	-1010
▁met	-1011
▁once	-1012
ens	-1013
▁late	-1014
ousand	-1015
rent	-1016
▁baby	-1017
▁doll	-1018
▁cut	-1019
▁six	-1020
▁See	-1021
ither	-1022
ott	-1023
▁dec	-1024
ition	-1025
ize	-1026
actly	-1027
▁wonder	-1028
eak	-1029
▁die	-1030
▁today	-1031
▁Listen	-1032
ib	-1033
▁knows	-1034
▁since	-1035
asy	-1036
▁Jack	-1037
▁Jesus	-1038
ery	-1039
▁yeah	-1040
▁At	-1041
ug	-1042
orn	-1043
▁case	-1044
▁afraid	-1045
ork	-1046
rew	-1047
▁interest	-1048
you	-1049
▁gun	-1050
▁such	-1051
sh	-1052
▁hurt	-1053
▁comm	-1054
fect	-1055
▁second	-1056
▁fig	-1057
ash	-1058
▁hope	-1059
▁which	-1060
use	-1061
▁thinking	-1062
▁hold	-1063
ces	-1064
▁brother	-1065
▁supposed	-1066
▁Dr	-1067
ness	-1068
▁Hello	-1069
▁month	-1070
cept	-1071
▁ter	-1072
▁four	-1073
▁Mar	-1074
▁ten	-1075
▁break	-1076
vel	-1077
▁Miss	-1078
▁thousand	-1079
▁book	-1080
▁ri	-1081
▁anyone	-1082
▁beaut	-1083
▁Mrs	-1084
▁minutes	-1085
▁check	-1086
ying	-1087
az	-1088
▁story	-1089
ump	-1090
▁cop	-1091
▁uh	-1092
aul	-1093
▁hit	-1094
▁shot	-1095
ile	-1096
cy	-1097
▁Hi	-1098
mm	-1099
▁half	-1100
▁trou	-1101
▁Com	-1102
▁until	-1103
iful	-1104
ared	-1105
▁em	-1106
ings	-1107
▁pri	-1108
▁probably	-1109
▁inv	-1110
▁Har	-1111
▁Somet	-1112
▁face	-1113
▁soon	-1114
ank	-1115
▁prom	-1116
▁fight	-1117
▁makes	-1118
me	-1119
head	-1120
▁wanna	-1121
▁sound	-1122
▁bed	-1123
▁door	-1124
▁hot	-1125
▁poss	-1126
▁Wait	-1127
ang	-1128
ount	-1129
▁eat	-1130
▁move	-1131
▁town	-1132
▁family	-1133
▁te	-1134
▁Would	-1135
unch	-1136
▁true	-1137
▁New	-1138
med	-1139
▁Se	-1140
▁damn	-1141
▁kids	-1142
ual	-1143
▁gave	-1144
▁wh	-1145
▁question	-1146
more	-1147
▁compl	-1148
▁heart	-1149
▁working	-1150
ial	-1151
▁somebody	-1152
▁Take	-1153
▁young	-1154
ned	-1155
▁ap	-1156
▁jo	-1157
ertain	-1158
▁married	-1159
uss	-1160
▁lost	-1161
▁Sp	-1162
yes	-1163
▁luck	-1164
▁least	-1165
hes	-1166
▁gets	-1167
▁Un	-1168
▁different	-1169
irty	-1170
cl	-1171
ier	-1172
▁?	-1173
cial	-1174
ents	-1175
▁Bl	-1176
▁pass	-1177
▁resp	-1178
▁law	-1179
ollow	-1180
▁trouble	-1181
▁Ar	-1182
▁twenty	-1183
the	-1184
▁dream	-1185
aid	-1186
son	-1187
▁import	-1188
io	-1189
umb	-1190
▁Le	-1191
▁sign	-1192
▁having	-1193
so	-1194
▁Ab	-1195
▁aw	-1196
▁hate	-1197
▁asked	-1198
▁fuckin	-1199
▁ev	-1200
▁anyway	-1201
▁rel	-1202
▁both	-1203
▁answ	-1204
ames	-1205
▁chance	-1206
▁Cap	-1207
▁phone	-1208
▁expl	-1209
▁Sorry	-1210
▁reason	-1211
reet	-1212
▁spe	-1213
▁Fuck	-1214
▁each	-1215
ph	-1216
▁fact	-1217
▁ent	-1218
▁ob	-1219
▁Tom	-1220
▁ready	-1221
pr	-1222
unk	-1223
outh	-1224
▁happy	-1225
▁beautiful	-1226
▁times	-1227
▁hours	-1228
▁exactly	-1229
its	-1230
▁fif	-1231
▁wish	-1232
▁cho	-1233
▁With	-1234
▁police	-1235
▁fr	-1236
▁hum	-1237
▁mill	-1238
▁anymore	-1239
come	-1240
iet	-1241
▁Was	-1242
▁side	-1243
▁change	-1244
ged	-1245
▁light	-1246
ute	-1247
▁gi	-1248
▁blood	-1249
vie	-1250
▁aren	-1251
▁Frank	-1252
▁comes	-1253
▁sk	-1254
▁Ne	-1255
umber	-1256
ention	-1257
▁important	-1258
▁forget	-1259
▁looks	-1260
▁ins	-1261
▁Ma	-1262
▁beg	-1263
▁trust	-1264
▁Sc	-1265
▁close	-1266
OU	-1267
cc	-1268
ove	-1269
▁dollars	-1270
ced	-1271
▁inf	-1272
▁couple	-1273
▁taking	-1274
▁expect	-1275
▁making	-1276
ult	-1277
▁mine	-1278
ole	-1279
▁later	-1280
ates	-1281
ete	-1282
▁telling	-1283
▁shoot	-1284
ross	-1285
icture	-1286
▁Ge	-1287
ison	-1288
▁dro	-1289
▁Char	-1290
▁bro	-1291
ards	-1292
▁pull	-1293
▁truth	-1294
▁high	-1295
land	-1296
▁bra	-1297
▁serious	-1298
▁lear	-1299
cer	-1300
▁easy	-1301
app	-1302
att	-1303
ding	-1304
▁Really	-1305
▁goes	-1306
du	-1307
ane	-1308
now	-1309
▁send	-1310
▁tou	-1311
▁anybody	-1312
▁eyes	-1313
▁yours	-1314
▁buy	-1315
▁conf	-1316
most	-1317
▁hon	-1318
amp	-1319
led	-1320
▁follow	-1321
▁Su	-1322
▁Mom	-1323
▁Does	-1324
▁quite	-1325
als	-1326
ude	-1327
▁fell	-1328
▁mur	-1329
▁death	-1330
▁picture	-1331
▁body	-1332
▁hands	-1333
▁air	-1334
meric	-1335
▁mess	-1336
▁*	-1337
itch	-1338
▁disc	-1339
▁sick	-1340
▁water	-1341
▁Man	-1342
▁fire	-1343
▁godd	-1344
▁char	-1345
ton	-1346
ject	-1347
mon	-1348
▁pie	-1349
ction	-1350
▁means	-1351
▁tried	-1352
cuse	-1353
▁power	-1354
▁dep	-1355
▁ship	-1356
▁thank	-1357
▁Ah	-1358
▁Je	-1359
▁res	-1360
'.	-1361
inner	-1362
sy	-1363
hin	-1364
▁Captain	-1365
▁cor	-1366
ling	-1367
▁sent	-1368
▁against	-1369
vers	-1370
▁TH	-1371
▁free	-1372
▁inside	-1373
ung	-1374
▁sy	-1375
▁inst	-1376
band	-1377
▁sort	-1378
▁dan	-1379
eral	-1380
▁stra	-1381
▁Bet	-1382
sel	-1383
▁His	-1384
▁dog	-1385
▁bull	-1386
▁Gr	-1387
iles	-1388
▁Bill	-1389
▁game	-1390
▁doctor	-1391
▁country	-1392
kes	-1393
▁full	-1394
▁speak	-1395
▁Americ	-1396
orge	-1397
usband	-1398
▁Af	-1399
cent	-1400
pid	-1401
olog	-1402
hind	-1403
▁ret	-1404
▁along	-1405
▁though	-1406
▁Jim	-1407
▁Two	-1408
lic	-1409
ient	-1410
▁Pro	-1411
ley	-1412
unt	-1413
▁sex	-1414
arly	-1415
▁Give	-1416
▁either	-1417
ler	-1418
▁sim	-1419
▁waiting	-1420
ween	-1421
▁inter	-1422
idd	-1423
▁funny	-1424
▁million	-1425
arent	-1426
▁wind	-1427
▁pres	-1428
▁everybody	-1429
ides	-1430
artment	-1431
ets	-1432
▁Am	-1433
▁husband	-1434
▁alive	-1435
ER	-1436
▁pap	-1437
▁forg	-1438
00	-1439
▁Got	-1440
▁party	-1441
ator	-1442
▁eight	-1443
▁figure	-1444
▁actually	-1445
▁office	-1446
cle	-1447
▁str	-1448
▁number	-1449
▁2	-1450
▁fav	-1451
▁answer	-1452
▁certain	-1453
IN	-1454
not	-1455
▁behind	-1456
▁wear	-1457
any	-1458
ched	-1459
ines	-1460
ital	-1461
teen	-1462
ured	-1463
▁died	-1464
▁suppose	-1465
ised	-1466
▁dad	-1467
ield	-1468
▁leg	-1469
▁stupid	-1470
oke	-1471
aken	-1472
▁coll	-1473
▁line	-1474
▁months	-1475
shit	-1476
▁fast	-1477
▁started	-1478
by	-1479
▁ele	-1480
▁women	-1481
▁Bob	-1482
▁sense	-1483
▁himself	-1484
▁shut	-1485
▁ma	-1486
erv	-1487
▁sub	-1488
ster	-1489
▁honey	-1490
▁det	-1491
▁record	-1492
▁Never	-1493
▁George	-1494
▁May	-1495
▁goddamn	-1496
▁between	-1497
▁Bar	-1498
▁sweet	-1499
▁bar	-1500
▁tea	-1501
▁ahead	-1502
▁Ben	-1503
▁Sir	-1504
ote	-1505
▁fall	-1506
▁pain	-1507
▁secret	-1508
ert	-1509
▁Huh	-1510
▁Could	-1511
▁seem	-1512
▁safe	-1513
▁Say	-1514
▁almost	-1515
▁moment	-1516
▁running	-1517
▁YOU	-1518
rol	-1519
▁dra	-1520
aughter	-1521
cks	-1522
▁Per	-1523
▁Whi	-1524
rought	-1525
▁front	-1526
haps	-1527
▁able	-1528
▁Nobody	-1529
▁dinner	-1530
▁Her	-1531
▁def	-1532
range	-1533
▁hair	-1534
▁living	-1535
te	-1536
ited	-1537
▁reg	-1538
▁cons	-1539
▁lead	-1540
ative	-1541
ience	-1542
leas	-1543
▁gra	-1544
▁terri	-1545
▁nobody	-1546
ats	-1547
ters	-1548
▁drive	-1549
ined	-1550
▁sing	-1551
▁El	-1552
▁Gu	-1553
▁hang	-1554
▁exper	-1555
▁scared	-1556
▁everyone	-1557
hip	-1558
▁its	-1559
▁rid	-1560
▁Something	-1561
▁worth	-1562
▁news	-1563
▁clean	-1564
to	-1565
ished	-1566
▁adv	-1567
▁shouldn	-1568
osp	-1569
▁test	-1570
itting	-1571
ony	-1572
ten	-1573
▁boys	-1574
▁stud	-1575
▁black	-1576
▁touch	-1577
▁mem	-1578
▁feeling	-1579
mit	-1580
▁Sam	-1581
▁brought	-1582
ram	-1583
▁Only	-1584
rence	-1585
▁happens	-1586
ush	-1587
▁hor	-1588
▁Very	-1589
▁children	-1590
▁street	-1591
▁favor	-1592
▁build	-1593
▁straight	-1594
ene	-1595
ney	-1596
▁pat	-1597
▁After	-1598
co	-1599
▁dou	-1600
▁sister	-1601
▁Ad	-1602
▁less	-1603
▁mist	-1604
ts	-1605
ric	-1606
▁lose	-1607
▁perfect	-1608
▁vis	-1609
▁also	-1610
▁outside	-1611
▁Pres	-1612
>.	-1613
▁ext	-1614
▁glad	-1615
eal	-1616
▁mus	-1617
▁York	-1618
▁write	-1619
cess	-1620
▁win	-1621
▁fool	-1622
.'	-1623
ics	-1624
ked	-1625
▁gen	-1626
▁whatever	-1627
▁Stop	-1628
bb	-1629
omb	-1630
vin	-1631
ility	-1632
▁Mary	-1633
▁Fine	-1634
▁lives	-1635
room	-1636
▁ball	-1637
▁human	-1638
▁asking	-1639
▁dear	-1640
uff	-1641
----	-1642
▁Che	-1643
▁dist	-1644
▁weeks	-1645
▁class	-1646
▁girls	-1647
▁inc	-1648
▁weren	-1649
king	-1650
▁thanks	-1651
ale	-1652
oot	-1653
▁lie	-1654
sol	-1655
atur	-1656
uddy	-1657
mp	-1658
▁Eng	-1659
▁seems	-1660
▁Tr	-1661
▁mad	-1662
▁About	-1663
▁daughter	-1664
▁Pl	-1665
▁prot	-1666
ically	-1667
▁alright	-1668
cked	-1669
▁Ed	-1670
▁taken	-1671
▁Which	-1672
▁grand	-1673
▁Wh	-1674
▁cap	-1675
▁lady	-1676
oor	-1677
▁Rem	-1678
▁Shut	-1679
ounds	-1680
▁fifty	-1681
ward	-1682
▁Con	-1683
▁small	-1684
▁ref	-1685
▁past	-1686
▁explain	-1687
oc	-1688
▁bel	-1689
▁rad	-1690
▁cold	-1691
▁sell	-1692
▁movie	-1693
▁throw	-1694
▁somewhere	-1695
ze	-1696
ald	-1697
▁del	-1698
▁These	-1699
▁needs	-1700
▁surpr	-1701
▁danger	-1702
▁possible	-1703
▁piece	-1704
nie	-1705
airs	-1706
▁dest	-1707
▁lau	-1708
▁tap	-1709
▁report	-1710
▁Great	-1711
▁mouth	-1712
ama	-1713
ault	-1714
ches	-1715
sych	-1716
▁Dan	-1717
▁Harry	-1718
▁complete	-1719
iam	-1720
men	-1721
eter	-1722
▁art	-1723
ief	-1724
▁key	-1725
▁dress	-1726
fort	-1727
iting	-1728
vest	-1729
▁till	-1730
▁parent	-1731
▁President	-1732
pping	-1733
▁fore	-1734
▁tired	-1735
stem	-1736
▁goin	-1737
▁Shit	-1738
▁Ag	-1739
reen	-1740
▁catch	-1741
▁fil	-1742
▁beat	-1743
go	-1744
ider	-1745
▁land	-1746
?"	-1747
▁es	-1748
icul	-1749
▁order	-1750
▁words	-1751
ospital	-1752
?...	-1753
▁add	-1754
▁buck	-1755
▁Sw	-1756
arth	-1757
aster	-1758
ature	-1759
▁food	-1760
bye	-1761
▁inform	-1762
▁looked	-1763
selves	-1764
▁bitch	-1765
▁thinks	-1766
uts	-1767
ones	-1768
▁Mart	-1769
▁cool	-1770
▁known	-1771
▁ought	-1772
ior	-1773
oul	-1774
▁blow	-1775
▁control	-1776
ffee	-1777
▁learn	-1778
▁leaving	-1779
rying	-1780
▁clear	-1781
▁ran	-1782
solute	-1783
▁Doctor	-1784
▁Even	-1785
▁imag	-1786
elt	-1787
▁Car	-1788
▁offic	-1789
▁special	-1790
▁Lou	-1791
▁med	-1792
▁dark	-1793
▁Everything	-1794
▁col	-1795
▁white	-1796
oose	-1797
▁pleas	-1798
▁accident	-1799
▁Our	-1800
▁fix	-1801
▁Mic	-1802
▁save	-1803
▁worked	-1804
▁promise	-1805
▁questions	-1806
ept	-1807
▁Sm	-1808
hose	-1809
ized	-1810
▁First	-1811
▁thirty	-1812
▁Ro	-1813
▁protect	-1814
eg	-1815
lo	-1816
▁Dav	-1817
▁Comm	-1818
▁works	-1819
ants	-1820
▁Isn	-1821
entle	-1822
▁Excuse	-1823
fic	-1824
▁ru	-1825
▁mag	-1826
▁rather	-1827
▁parents	-1828
▁sn	-1829
▁Wal	-1830
▁From	-1831
▁calling	-1832
'?	-1833
▁Mc	-1834
▁begin	-1835
▁company	-1836
▁playing	-1837
▁wonderful	-1838
ON	-1839
▁squ	-1840
▁psych	-1841
▁pub	-1842
▁ride	-1843
▁Nice	-1844
ession	-1845
▁Alright	-1846
ots	-1847
▁Nick	-1848
esides	-1849
▁kidding	-1850
▁By	-1851
ency	-1852
▁Didn	-1853
AT	-1854
aven	-1855
▁exc	-1856
▁dire	-1857
idence	-1858
▁disapp	-1859
▁fly	-1860
ately	-1861
▁system	-1862
bor	-1863
▁Paul	-1864
▁train	-1865
iver	-1866
iddle	-1867
▁Keep	-1868
▁prof	-1869
▁Daddy	-1870
▁stick	-1871
▁attack	-1872
▁Pr	-1873
▁sometimes	-1874
RE	-1875
how	-1876
cher	-1877
▁lucky	-1878
irt	-1879
jor	-1880
aste	-1881
▁Max	-1882
ision	-1883
▁wall	-1884
▁interested	-1885
▁Joe	-1886
▁kiss	-1887
▁star	-1888
solutely	-1889
reed	-1890
▁Gra	-1891
▁Sha	-1892
▁Those	-1893
▁En	-1894
▁hospital	-1895
▁sal	-1896
arling	-1897
but	-1898
▁par	-1899
▁pos	-1900
▁Call	-1901
▁takes	-1902
▁personal	-1903
AN	-1904
The	-1905
rey	-1906
▁Cha	-1907
▁priv	-1908
▁People	-1909
ists	-1910
▁Gen	-1911
▁bag	-1912
▁quick	-1913
▁shall	-1914
▁bother	-1915
erry	-1916
▁clot	-1917
▁oper	-1918
▁poor	-1919
▁meant	-1920
▁trans	-1921
zz	-1922
joy	-1923
what	-1924
▁city	-1925
▁felt	-1926
night	-1927
▁doin	-1928
▁grow	-1929
▁spend	-1930
▁concer	-1931
▁outta	-1932
▁Three	-1933
cha	-1934
ific	-1935
▁loved	-1936
▁coffee	-1937
bar	-1938
gan	-1939
ich	-1940
ows	-1941
▁Big	-1942
▁Mother	-1943
▁others	-1944
bt	-1945
urs	-1946
▁bas	-1947
▁music	-1948
',	-1949
ken	-1950
spect	-1951
▁press	-1952
▁top	-1953
▁smart	-1954
▁meeting	-1955
You	-1956
ina	-1957
▁treat	-1958
▁worse	-1959
fer	-1960
▁OK	-1961
▁Jeff	-1962
ming	-1963
▁bank	-1964
▁handle	-1965
▁respect	-1966
we	-1967
com	-1968
ball	-1969
hole	-1970
ities	-1971
▁cause	-1972
ead	-1973
▁Cal	-1974
▁Ray	-1975
▁feet	-1976
▁turned	-1977
five	-1978
lish	-1979
▁Boy	-1980
terday	-1981
▁invol	-1982
▁giving	-1983
LL	-1984
▁Ind	-1985
▁date	-1986
▁David	-1987
▁Whatever	-1988
▁NO	-1989
▁paper	-1990
ully	-1991
vern	-1992
▁eye	-1993
▁Col	-1994
inger	-1995
▁Think	-1996
▁become	-1997
▁Forget	-1998
▁seeing	-1999
ik	-2000
▁ow	-2001
▁ind	-2002
▁fair	-2003
▁hotel	-2004
br	-2005
ided	-2006
▁THE	-2007
lin	-2008
rap	-2009
ills	-2010
▁tot	-2011
dered	-2012
▁Charlie	-2013
oof	-2014
▁cost	-2015
▁road	-2016
bo	-2017
▁Mister	-2018
▁Par	-2019
▁Remember	-2020
ma	-2021
illy	-2022
▁breat	-2023
▁fault	-2024
▁bullshit	-2025
▁drug	-2026
uri	-2027
ered	-2028
▁Rose	-2029
▁store	-2030
▁cannot	-2031
ues	-2032
▁sto	-2033
▁Damn	-2034
▁laugh	-2035
▁fucked	-2036
▁plane	-2037
▁swear	-2038
▁caught	-2039
▁talked	-2040
eed	-2041
hael	-2042
sing	-2043
ering	-2044
▁deep	-2045
vent	-2046
▁apartment	-2047
▁pen	-2048
▁kick	-2049
▁short	-2050
▁smell	-2051
irth	-2052
oint	-2053
vious	-2054
ories	-2055
▁mach	-2056
▁tele	-2057
uation	-2058
set	-2059
▁ty	-2060
▁strong	-2061
roy	-2062
amed	-2063
▁drop	-2064
▁ones	-2065
▁creat	-2066
▁choice	-2067
▁simple	-2068
▁clothes	-2069
cri	-2070
ury	-2071
▁Put	-2072
▁cops	-2073
▁lawy	-2074
▁sold	-2075
▁Michael	-2076
▁mention	-2077
▁worried	-2078
ray	-2079
▁vo	-2080
elve	-2081
ring	-2082
▁gentle	-2083
".	-2084
rie	-2085
▁Lu	-2086
erve	-2087
▁bast	-2088
▁mistake	-2089
▁Lea	-2090
uture	-2091
▁return	-2092
ode	-2093
fuck	-2094
▁kept	-2095
▁murder	-2096
!!!	-2097
▁paid	-2098
▁Bu	-2099
▁seven	-2100
▁Walter	-2101
▁difference	-2102
▁Act	-2103
ism	-2104
▁near	-2105
▁changed	-2106
inal	-2107
▁War	-2108
▁invest	-2109
▁Anything	-2110
▁happening	-2111
une	-2112
▁Ph	-2113
ages	-2114
▁prison	-2115
▁information	-2116
ift	-2117
that	-2118
itive	-2119
▁Make	-2120
▁prog	-2121
ges	-2122
▁Fl	-2123
▁hung	-2124
▁serv	-2125
▁given	-2126
ational	-2127
ders	-2128
▁red	-2129
▁clos	-2130
nes	-2131
tle	-2132
▁aff	-2133
▁pract	-2134
▁honest	-2135
▁middle	-2136
▁American	-2137
▁Sometimes	-2138
ilt	-2139
▁TV	-2140
▁mis	-2141
▁cond	-2142
▁pack	-2143
▁Jimmy	-2144
▁Sid	-2145
▁Dick	-2146
▁sake	-2147
reci	-2148
▁tick	-2149
ission	-2150
▁longer	-2151
ls	-2152
lex	-2153
read	-2154
istory	-2155
▁bath	-2156
▁step	-2157
▁bucks	-2158
▁enjoy	-2159
ipp	-2160
▁King	-2161
▁boat	-2162
▁suit	-2163
▁future	-2164
ky	-2165
▁Te	-2166
ular	-2167
▁ris	-2168
▁moving	-2169
▁strange	-2170
▁terrible	-2171
▁drunk	-2172
▁entire	-2173
bert	-2174
▁Everybody	-2175
used	-2176
▁pur	-2177
▁sun	-2178
▁hasn	-2179
ective	-2180
▁marry	-2181
▁yesterday	-2182
??	-2183
ety	-2184
ement	-2185
uring	-2186
▁brain	-2187
▁lunch	-2188
for	-2189
idge	-2190
▁Hold	-2191
▁slow	-2192
▁sat	-2193
▁Four	-2194
,"	-2195
▁div	-2196
▁busy	-2197
▁liked	-2198
rop	-2199
▁oh	-2200
▁anim	-2201
▁Peter	-2202
▁finish	-2203
know	-2204
▁cab	-2205
▁cal	-2206
▁cent	-2207
▁foot	-2208
▁stri	-2209
▁knock	-2210
▁weird	-2211
▁respons	-2212
of	-2213
els	-2214
iot	-2215
key	-2216
oun	-2217
▁Out	-2218
▁truck	-2219
▁sounds	-2220
cing	-2221
▁eng	-2222
▁Carl	-2223
▁bott	-2224
▁James	-2225
▁broke	-2226
▁anywhere	-2227
"?	-2228
ING	-2229
iol	-2230
▁ill	-2231
▁wit	-2232
▁trip	-2233
stairs	-2234
▁Someone	-2235
CK	-2236
huh	-2237
▁birth	-2238
▁lying	-2239
▁sitting	-2240
▁watching	-2241
▁Edd	-2242
lcome	-2243
▁except	-2244
▁appreci	-2245
▁careful	-2246
▁figured	-2247
▁problems	-2248
▁dangerous	-2249
▁jail	-2250
▁jump	-2251
▁floor	-2252
▁box	-2253
▁pal	-2254
urity	-2255
▁public	-2256
aces	-2257
ored	-2258
▁Too	-2259
ution	-2260
▁born	-2261
▁Perhaps	-2262
▁evening	-2263
yn	-2264
▁piss	-2265
▁quiet	-2266
▁radio	-2267
▁Johnny	-2268
▁Besides	-2269
▁Eve	-2270
itche	-2271
▁burn	-2272
▁bust	-2273
▁ring	-2274
▁chick	-2275
▁involved	-2276
eace	-2277
▁bur	-2278
ander	-2279
clock	-2280
▁fear	-2281
▁calls	-2282
▁account	-2283
ien	-2284
tin	-2285
ume	-2286
▁dev	-2287
▁boss	-2288
▁early	-2289
▁glass	-2290
▁upset	-2291
▁needed	-2292
▁window	-2293
ino	-2294
oon	-2295
▁..	-2296
▁English	-2297
▁situation	-2298
ging	-2299
▁cover	-2300
ror	-2301
▁Ho	-2302
▁ed	-2303
▁quit	-2304
▁completely	-2305
▁proper	-2306
mas	-2307
nect	-2308
▁Sal	-2309
▁lay	-2310
ervous	-2311
eat	-2312
▁mot	-2313
▁Fred	-2314
▁state	-2315
▁General	-2316
▁killing	-2317
▁Nor	-2318
▁cat	-2319
ments	-2320
▁Father	-2321
▁realize	-2322
aine	-2323
▁Bea	-2324
▁offer	-2325
▁Should	-2326
▁present	-2327
ians	-2328
udge	-2329
▁ang	-2330
▁rich	-2331
ett	-2332
ache	-2333
▁esc	-2334
▁carry	-2335
▁kinda	-2336
▁stopped	-2337
▁building	-2338
▁z	-2339
ili	-2340
yle	-2341
fully	-2342
▁Mike	-2343
▁Ell	-2344
▁occ	-2345
▁Jake	-2346
▁nine	-2347
▁loc	-2348
▁doubt	-2349
▁letter	-2350
▁discuss	-2351
▁message	-2352
noon	-2353
▁belong	-2354
▁destroy	-2355
▁history	-2356
ec	-2357
ron	-2358
orth	-2359
▁cig	-2360
rench	-2361
▁More	-2362
▁Eddie	-2363
▁books	-2364
▁tough	-2365
dden	-2366
rill	-2367
▁Mor	-2368
▁Stay	-2369
▁team	-2370
▁White	-2371
▁sudden	-2372
▁certainly	-2373
iter	-2374
▁list	-2375
gu	-2376
ope	-2377
▁sol	-2378
▁teach	-2379
▁nothin	-2380
▁private	-2381
elie	-2382
▁court	-2383
▁super	-2384
▁arrest	-2385
▁possib	-2386
▁Co	-2387
▁Mad	-2388
▁Six	-2389
▁Try	-2390
▁dig	-2391
▁opp	-2392
▁Alex	-2393
▁cash	-2394
▁self	-2395
▁lived	-2396
port	-2397
urch	-2398
▁Ser	-2399
▁dance	-2400
▁miles	-2401
▁table	-2402
▁picked	-2403
▁asshole	-2404
▁imagine	-2405
ium	-2406
▁Gl	-2407
▁cur	-2408
▁afternoon	-2409
▁interesting	-2410
▁Ted	-2411
▁ble	-2412
▁!	-2413
▁Bo	-2414
ffic	-2415
▁Pat	-2416
▁Looks	-2417
▁bought	-2418
▁finally	-2419
▁cir	-2420
▁neigh	-2421
▁screw	-2422
▁decided	-2423
▁consider	-2424
EN	-2425
▁arm	-2426
▁Russ	-2427
▁Anyway	-2428
erg	-2429
▁Sec	-2430
▁Son	-2431
▁mark	-2432
▁likes	-2433
▁across	-2434
▁forgot	-2435
▁gotten	-2436
▁unless	-2437
>,	-2438
aret	-2439
atic	-2440
uter	-2441
▁owe	-2442
iment	-2443
▁draw	-2444
▁killer	-2445
▁nervous	-2446
▁Actually	-2447
▁Christmas	-2448
ege	-2449
▁Mac	-2450
▁adm	-2451
▁Lord	-2452
▁none	-2453
▁named	-2454
▁wrote	-2455
ask	-2456
▁Sch	-2457
▁Ste	-2458
▁tre	-2459
▁voice	-2460
▁station	-2461
▁finished	-2462
OR	-2463
▁god	-2464
▁cross	-2465
▁lawyer	-2466
▁Sen	-2467
▁gar	-2468
▁soul	-2469
cially	-2470
▁ear	-2471
▁bird	-2472
▁bomb	-2473
▁dumb	-2474
▁prep	-2475
▁wake	-2476
▁gold	-2477
▁allow	-2478
▁bastard	-2479
▁eh	-2480
ggest	-2481
iding	-2482
▁card	-2483
▁reach	-2484
▁ground	-2485
AR	-2486
iff	-2487
rect	-2488
▁Sim	-2489
▁visit	-2490
ination	-2491
gue	-2492
▁join	-2493
▁main	-2494
▁tape	-2495
▁space	-2496
▁steal	-2497
▁impress	-2498
tw	-2499
▁Im	-2500
ened	-2501
▁pop	-2502
▁requ	-2503
lfriend	-2504
▁threat	-2505
▁somethin	-2506
▁5	-2507
alt	-2508
boy	-2509
enn	-2510
enny	-2511
tact	-2512
▁weap	-2513
▁suggest	-2514
▁appreciate	-2515
▁ve	-2516
ices	-2517
▁form	-2518
friend	-2519
▁prove	-2520
▁staying	-2521
▁pleasure	-2522
!?	-2523
vernment	-2524
oop	-2525
ries	-2526
view	-2527
▁Mer	-2528
▁fat	-2529
▁twelve	-2530
avy	-2531
▁tur	-2532
▁Last	-2533
▁Want	-2534
▁bunch	-2535
▁apolog	-2536
▁William	-2537
▁driving	-2538
▁wearing	-2539
▁pictures	-2540
mb	-2541
rid	-2542
▁cas	-2543
▁fail	-2544
▁hadn	-2545
▁French	-2546
▁charge	-2547
▁standing	-2548
cker	-2549
vies	-2550
work	-2551
▁fol	-2552
inite	-2553
▁dying	-2554
▁machine	-2555
▁er	-2556
▁Cor	-2557
▁Lie	-2558
▁Ric	-2559
▁val	-2560
▁hero	-2561
▁missing	-2562
▁accept	-2563
▁perhaps	-2564
▁witness	-2565
hys	-2566
▁mil	-2567
▁Five	-2568
▁cell	-2569
▁fifteen	-2570
hen	-2571
uty	-2572
cell	-2573
ires	-2574
▁lad	-2575
ormal	-2576
▁fill	-2577
▁park	-2578
▁moved	-2579
ham	-2580
rick	-2581
▁roll	-2582
▁shar	-2583
▁surv	-2584
▁Somebody	-2585
ears	-2586
▁Del	-2587
▁Sus	-2588
▁smo	-2589
riage	-2590
▁forty	-2591
ogn	-2592
What	-2593
bout	-2594
hood	-2595
▁mod	-2596
▁Holl	-2597
▁nose	-2598
▁phot	-2599
▁hungry	-2600
▁America	-2601
▁obvious	-2602
▁program	-2603
af	-2604
▁ce	-2605
▁Wor	-2606
▁age	-2607
▁dam	-2608
▁field	-2609
▁contact	-2610
▁girlfriend	-2611
ern	-2612
xic	-2613
riff	-2614
ules	-2615
uten	-2616
well	-2617
▁vict	-2618
▁excuse	-2619
▁missed	-2620
▁movies	-2621
▁instead	-2622
▁putting	-2623
▁ice	-2624
▁wed	-2625
▁joke	-2626
▁Louis	-2627
▁service	-2628
▁Aw	-2629
▁Hon	-2630
▁Rob	-2631
▁Black	-2632
▁produ	-2633
▁commun	-2634
▁seconds	-2635
und	-2636
▁Love	-2637
▁Must	-2638
▁Buddy	-2639
▁saved	-2640
000	-2641
ano	-2642
oud	-2643
time	-2644
▁Godd	-2645
▁peace	-2646
▁totally	-2647
▁listening	-2648
ruct	-2649
▁Red	-2650
▁lim	-2651
▁mir	-2652
▁camp	-2653
▁board	-2654
▁honor	-2655
▁direct	-2656
▁relations	-2657
got	-2658
..."	-2659
▁Wow	-2660
▁equ	-2661
attle	-2662
▁song	-2663
▁Chief	-2664
▁horse	-2665
▁sad	-2666
▁tem	-2667
▁tor	-2668
owers	-2669
▁Once	-2670
▁ways	-2671
▁Leave	-2672
▁stuck	-2673
IT	-2674
het	-2675
mmer	-2676
▁stat	-2677
▁Still	-2678
ossible	-2679
▁dreams	-2680
▁beginning	-2681
hh	-2682
ends	-2683
place	-2684
▁Aren	-2685
▁army	-2686
▁viol	-2687
utenant	-2688
▁attention	-2689
ius	-2690
▁Ha	-2691
aith	-2692
tern	-2693
▁Jew	-2694
uthor	-2695
▁Most	-2696
▁hide	-2697
▁rock	-2698
▁third	-2699
▁Everyone	-2700
▁spl	-2701
▁circ	-2702
▁hurry	-2703
--------	-2704
▁connect	-2705
▁darling	-2706
aint	-2707
amer	-2708
hard	-2709
▁West	-2710
▁enem	-2711
▁evil	-2712
▁neck	-2713
▁daddy	-2714
▁gives	-2715
▁GO	-2716
▁cry	-2717
▁Billy	-2718
▁single	-2719
▁travel	-2720
ris	-2721
▁eas	-2722
▁emp	-2723
▁Watch	-2724
>?	-2725
▁Cra	-2726
▁Star	-2727
▁bill	-2728
▁fish	-2729
▁earth	-2730
▁share	-2731
▁Exactly	-2732
ica	-2733
▁hy	-2734
▁Help	-2735
▁pray	-2736
▁prop	-2737
▁blame	-2738
do	-2739
inc	-2740
▁WH	-2741
▁av	-2742
ified	-2743
▁Back	-2744
▁awful	-2745
▁recogn	-2746
▁address	-2747
▁college	-2748
▁comfort	-2749
▁percent	-2750
▁surprise	-2751
pin	-2752
▁ste	-2753
▁film	-2754
▁hardly	-2755
ify	-2756
▁IN	-2757
ille	-2758
▁crime	-2759
▁Before	-2760
▁papers	-2761
▁partner	-2762
▁ourselves	-2763
rat	-2764
▁Were	-2765
▁escap	-2766
▁idiot	-2767
▁reading	-2768
aly	-2769
▁Jul	-2770
▁appro	-2771
▁walking	-2772
▁experience	-2773
vy	-2774
ana	-2775
roup	-2776
ures	-2777
otion	-2778
▁Bull	-2779
▁blue	-2780
▁hook	-2781
▁loves	-2782
let	-2783
>...	-2784
▁Ann	-2785
▁beer	-2786
▁club	-2787
▁load	-2788
▁sens	-2789
▁Honey	-2790
▁talkin	-2791
▁investig	-2792
▁Cle	-2793
▁vir	-2794
cious	-2795
icide	-2796
▁Over	-2797
▁Better	-2798
▁evidence	-2799
ET	-2800
ives	-2801
roud	-2802
▁Tra	-2803
heart	-2804
▁Paris	-2805
▁orders	-2806
▁security	-2807
▁Em	-2808
ager	-2809
iced	-2810
▁Dep	-2811
▁Fed	-2812
ardon	-2813
▁cook	-2814
▁fort	-2815
▁guns	-2816
▁king	-2817
▁birthday	-2818
▁position	-2819
▁wondering	-2820
rer	-2821
ser	-2822
ette	-2823
▁Ger	-2824
▁fan	-2825
▁lar	-2826
▁City	-2827
▁exam	-2828
▁extra	-2829
▁Sounds	-2830
▁planet	-2831
▁fighting	-2832
▁promised	-2833
bed	-2834
▁cow	-2835
▁Rick	-2836
▁nuts	-2837
▁admit	-2838
▁folks	-2839
▁natur	-2840
▁Goodbye	-2841
▁wedding	-2842
▁starting	-2843
ov	-2844
ya	-2845
aged	-2846
ners	-2847
onel	-2848
▁conv	-2849
▁crap	-2850
▁Grand	-2851
▁using	-2852
▁Twenty	-2853
▁broken	-2854
▁forever	-2855
▁suspect	-2856
▁usually	-2857
▁Probably	-2858
▁computer	-2859
...!	-2860
▁San	-2861
▁phys	-2862
▁type	-2863
▁block	-2864
▁divor	-2865
initely	-2866
▁asleep	-2867
▁memory	-2868
▁cigaret	-2869
▁marriage	-2870
IS	-2871
mmm	-2872
ral	-2873
earch	-2874
▁cred	-2875
▁elect	-2876
▁notice	-2877
▁mission	-2878
▁boyfriend	-2879
iny	-2880
wise	-2881
▁sil	-2882
azing	-2883
ficult	-2884
▁Doesn	-2885
▁Jerry	-2886
▁buddy	-2887
▁silly	-2888
bit	-2889
vis	-2890
imme	-2891
▁low	-2892
▁fired	-2893
▁tells	-2894
▁normal	-2895
▁absolutely	-2896
▁wat	-2897
ended	-2898
oring	-2899
▁Kill	-2900
▁Since	-2901
▁spent	-2902
BI	-2903
zen	-2904
pens	-2905
▁Bab	-2906
▁jack	-2907
▁spec	-2908
▁wild	-2909
▁Major	-2910
▁agree	-2911
▁relax	-2912
ES	-2913
iant	-2914
▁Min	-2915
▁aut	-2916
▁bre	-2917
▁gas	-2918
▁lab	-2919
▁base	-2920
▁post	-2921
▁plans	-2922
iculous	-2923
▁neighbor	-2924
can	-2925
fast	-2926
▁Gee	-2927
▁ann	-2928
alent	-2929
▁note	-2930
ending	-2931
▁guest	-2932
▁names	-2933
▁Charles	-2934
▁whether	-2935
uc	-2936
gged	-2937
ivil	-2938
▁Sit	-2939
▁Ever	-2940
▁host	-2941
amb	-2942
eth	-2943
▁Fin	-2944
▁Lau	-2945
▁Mag	-2946
▁fit	-2947
▁ide	-2948
▁quar	-2949
▁acting	-2950
▁collect	-2951
>!	-2952
ently	-2953
▁Cong	-2954
▁beha	-2955
▁lock	-2956
▁rent	-2957
elieve	-2958
▁angry	-2959
▁drugs	-2960
▁fellow	-2961
▁walked	-2962
▁writing	-2963
gin	-2964
iew	-2965
▁ir	-2966
andy	-2967
over	-2968
▁Ain	-2969
▁Has	-2970
ption	-2971
▁feed	-2972
▁Earth	-2973
▁Uncle	-2974
▁Lieutenant	-2975
ese	-2976
irm	-2977
lyn	-2978
nel	-2979
▁Mu	-2980
▁Time	-2981
▁Tommy	-2982
▁twice	-2983
▁bathroom	-2984
▁Ten	-2985
▁fur	-2986
▁vac	-2987
▁Little	-2988
▁difficult	-2989
acy	-2990
erk	-2991
form	-2992
▁FBI	-2993
▁Hal	-2994
ining	-2995
light	-2996
▁spot	-2997
▁Mexic	-2998
▁polit	-2999
▁plenty	-3000
▁holding	-3001
▁records	-3002
lly	-3003
aren	-3004
hile	-3005
just	-3006
▁Hen	-3007
▁dem	-3008
Cause	-3009
▁Mars	-3010
▁crew	-3011
▁cust	-3012
▁feels	-3013
▁keeps	-3014
▁smoke	-3015
▁contin	-3016
▁dollar	-3017
▁remind	-3018
▁learned	-3019
▁officer	-3020
ED	-3021
ata	-3022
ste	-3023
▁Mo	-3024
▁Andy	-3025
▁arri	-3026
▁inno	-3027
▁Bobby	-3028
▁closed	-3029
▁herself	-3030
▁ridiculous	-3031
ped	-3032
uit	-3033
▁Up	-3034
ploy	-3035
rass	-3036
rodu	-3037
urse	-3038
▁Doc	-3039
▁Under	-3040
▁proud	-3041
▁tight	-3042
▁fright	-3043
▁correct	-3044
▁welcome	-3045
OM	-3046
chn	-3047
cket	-3048
▁Pol	-3049
astic	-3050
itude	-3051
▁weak	-3052
▁level	-3053
UT	-3054
ero	-3055
!...	-3056
pper	-3057
▁Adm	-3058
▁Det	-3059
▁egg	-3060
▁Dude	-3061
▁Thom	-3062
▁blind	-3063
▁Sl	-3064
▁Jean	-3065
▁dick	-3066
▁rules	-3067
▁island	-3068
▁pulled	-3069
▁summer	-3070
▁surprised	-3071
sc	-3072
con	-3073
ppy	-3074
▁ant	-3075
itten	-3076
▁Betty	-3077
▁built	-3078
▁loose	-3079
▁trick	-3080
▁waste	-3081
▁finger	-3082
▁Er	-3083
▁Dor	-3084
▁Fif	-3085
otten	-3086
▁Hard	-3087
▁crim	-3088
▁spir	-3089
▁organ	-3090
▁advice	-3091
▁necess	-3092
▁feelings	-3093
▁particul	-3094
▁relationship	-3095
bs	-3096
ils	-3097
que	-3098
▁IT	-3099
▁ca	-3100
eeth	-3101
esty	-3102
▁Old	-3103
▁Rel	-3104
ipped	-3105
▁Turn	-3106
▁dump	-3107
▁gift	-3108
ountain	-3109
aff	-3110
off	-3111
unny	-3112
▁bow	-3113
▁Next	-3114
▁hole	-3115
▁often	-3116
▁locked	-3117
gel	-3118
▁Lo	-3119
host	-3120
▁sea	-3121
▁Frid	-3122
▁Leon	-3123
▁yell	-3124
ishing	-3125
▁embar	-3126
▁forgive	-3127
▁stories	-3128
▁favorite	-3129
▁Absolutely	-3130
za	-3131
lor	-3132
por	-3133
▁la	-3134
arry	-3135
▁Lee	-3136
▁Ter	-3137
▁Van	-3138
▁iss	-3139
▁area	-3140
▁curi	-3141
▁apart	-3142
hington	-3143
▁places	-3144
▁government	-3145
▁impossible	-3146
ada	-3147
ivers	-3148
▁Phil	-3149
▁Talk	-3150
▁band	-3151
▁seemed	-3152
▁Sheriff	-3153
▁contract	-3154
▁condition	-3155
lt	-3156
▁Sk	-3157
essor	-3158
▁file	-3159
▁rece	-3160
▁risk	-3161
▁track	-3162
▁Martin	-3163
▁lovely	-3164
▁played	-3165
▁scream	-3166
▁Goddamn	-3167
▁Richard	-3168
▁Washington	-3169
rank	-3170
▁est	-3171
▁tax	-3172
house	-3173
▁coun	-3174
▁Eight	-3175
▁force	-3176
▁stole	-3177
▁Always	-3178
▁during	-3179
▁intell	-3180
▁victim	-3181
aim	-3182
uly	-3183
▁pu	-3184
▁dun	-3185
rible	-3186
▁Mama	-3187
▁skin	-3188
▁Scott	-3189
▁major	-3190
▁price	-3191
▁attract	-3192
▁sleeping	-3193
ids	-3194
raph	-3195
wood	-3196
▁pot	-3197
▁spo	-3198
ffect	-3199
▁lots	-3200
▁Guess	-3201
▁camer	-3202
▁scare	-3203
▁Um	-3204
ford	-3205
▁Jan	-3206
▁Shh	-3207
▁hey	-3208
▁pan	-3209
arden	-3210
▁Hall	-3211
▁Mill	-3212
▁Pret	-3213
▁hall	-3214
▁view	-3215
▁Thing	-3216
▁dirty	-3217
▁freak	-3218
▁worst	-3219
▁convers	-3220
▁Tomorrow	-3221
gn	-3222
ker	-3223
uel	-3224
▁Ok	-3225
iner	-3226
ises	-3227
▁Roy	-3228
▁hom	-3229
▁hun	-3230
▁odd	-3231
▁Chan	-3232
▁sand	-3233
▁succ	-3234
ration	-3235
vision	-3236
▁Henry	-3237
▁Believe	-3238
▁charact	-3239
▁neither	-3240
▁willing	-3241
▁breakfast	-3242
▁profession	-3243
▁TO	-3244
aper	-3245
itor	-3246
▁Bur	-3247
iforn	-3248
▁Long	-3249
▁calm	-3250
▁cast	-3251
▁swim	-3252
▁civil	-3253
▁Jeffrey	-3254
▁command	-3255
▁Californ	-3256
▁embarrass	-3257
▁ME	-3258
ruce	-3259
yond	-3260
▁Ask	-3261
▁Mon	-3262
▁aud	-3263
▁cute	-3264
▁onto	-3265
▁opin	-3266
▁Holly	-3267
▁taste	-3268
▁Colonel	-3269
▁subject	-3270
igg	-3271
isf	-3272
olf	-3273
resh	-3274
▁Pop	-3275
▁Pri	-3276
▁den	-3277
▁Holy	-3278
▁Vict	-3279
urance	-3280
▁games	-3281
▁detail	-3282
▁gettin	-3283
▁nature	-3284
ns	-3285
uro	-3286
,000	-3287
▁mix	-3288
▁sle	-3289
ument	-3290
▁Find	-3291
▁wood	-3292
icated	-3293
▁round	-3294
▁teeth	-3295
▁animal	-3296
▁church	-3297
▁within	-3298
▁knowing	-3299
▁patient	-3300
▁upstairs	-3301
▁California	-3302
ply	-3303
two	-3304
▁Ya	-3305
iral	-3306
rage	-3307
▁Hur	-3308
▁Jun	-3309
▁mer	-3310
venty	-3311
▁Check	-3312
▁gener	-3313
▁group	-3314
▁insane	-3315
▁search	-3316
itz	-3317
aked	-3318
anks	-3319
gest	-3320
▁Sar	-3321
▁Tri	-3322
▁High	-3323
▁Show	-3324
▁code	-3325
▁decide	-3326
▁Another	-3327
▁weekend	-3328
▁concerned	-3329
VE	-3330
ka	-3331
bur	-3332
gar	-3333
like	-3334
roll	-3335
▁Guy	-3336
▁thr	-3337
▁und	-3338
▁copy	-3339
▁study	-3340
▁Street	-3341
▁forward	-3342
UCK	-3343
ites	-3344
▁App	-3345
▁Rog	-3346
ooper	-3347
ortun	-3348
▁Park	-3349
▁Rome	-3350
▁cock	-3351
▁numb	-3352
▁scene	-3353
▁Except	-3354
▁career	-3355
▁corner	-3356
▁apologize	-3357
oh	-3358
▁Prof	-3359
▁purp	-3360
▁Bruce	-3361
▁chair	-3362
▁author	-3363
▁common	-3364
▁eating	-3365
▁showed	-3366
It	-3367
yl	-3368
ints	-3369
line	-3370
medi	-3371
▁cru	-3372
▁crow	-3373
▁runs	-3374
▁House	-3375
▁const	-3376
▁German	-3377
▁heaven	-3378
▁settle	-3379
▁support	-3380
▁innocent	-3381
▁detective	-3382
▁Cr	-3383
▁La	-3384
▁Int	-3385
▁cup	-3386
eared	-3387
imate	-3388
▁State	-3389
▁dunno	-3390
▁shoes	-3391
▁stock	-3392
▁stran	-3393
▁effect	-3394
▁itself	-3395
ades	-3396
▁Tod	-3397
▁Way	-3398
stein	-3399
▁suff	-3400
▁Other	-3401
▁Smith	-3402
▁agent	-3403
▁taught	-3404
ulations	-3405
rog	-3406
back	-3407
merg	-3408
reme	-3409
they	-3410
▁Sho	-3411
▁mid	-3412
▁nin	-3413
▁pig	-3414
jesty	-3415
▁seat	-3416
▁warm	-3417
▁Marty	-3418
▁newsp	-3419
▁credit	-3420
▁double	-3421
▁Admiral	-3422
▁hanging	-3423
▁brothers	-3424
▁drinking	-3425
din	-3426
eds	-3427
▁AN	-3428
mare	-3429
▁Bye	-3430
▁hol	-3431
antic	-3432
▁soft	-3433
▁Agent	-3434
▁turns	-3435
▁gentlemen	-3436
ai	-3437
oyd	-3438
icle	-3439
▁Cat	-3440
ology	-3441
▁None	-3442
▁heal	-3443
▁keys	-3444
▁tree	-3445
▁ident	-3446
▁immedi	-3447
▁paying	-3448
▁starts	-3449
▁ticket	-3450
▁noticed	-3451
aur	-3452
▁pe	-3453
eech	-3454
four	-3455
iest	-3456
lect	-3457
reng	-3458
rian	-3459
▁Ken	-3460
▁rob	-3461
▁legs	-3462
▁comin	-3463
▁empty	-3464
▁heavy	-3465
▁afford	-3466
▁breath	-3467
▁amazing	-3468
▁survive	-3469
ID	-3470
OW	-3471
▁Ev	-3472
town	-3473
▁Gre	-3474
ourse	-3475
▁Stan	-3476
▁fant	-3477
▁Danie	-3478
▁color	-3479
▁guard	-3480
▁sight	-3481
▁split	-3482
mission	-3483
▁Pretty	-3484
▁desert	-3485
▁helped	-3486
▁losing	-3487
▁dropped	-3488
▁Bullshit	-3489
▁greatest	-3490
▁themselves	-3491
erm	-3492
nal	-3493
angu	-3494
rate	-3495
▁Its	-3496
▁Sant	-3497
itchen	-3498
▁responsible	-3499
ki	-3500
ugg	-3501
ula	-3502
▁HE	-3503
▁Nah	-3504
▁wha	-3505
▁Comp	-3506
▁Dave	-3507
▁cars	-3508
▁cheap	-3509
▁Harold	-3510
▁Victor	-3511
▁flight	-3512
▁Brother	-3513
▁keeping	-3514
▁success	-3515
▁training	-3516
▁interview	-3517
▁department	-3518
▁television	-3519
ances	-3520
onely	-3521
▁moon	-3522
ograph	-3523
▁action	-3524
▁lately	-3525
▁Senator	-3526
▁opinion	-3527
▁SH	-3528
elly	-3529
inda	-3530
▁Dou	-3531
▁bod	-3532
▁tip	-3533
▁Same	-3534
▁lied	-3535
▁pool	-3536
▁shop	-3537
▁South	-3538
▁judge	-3539
▁trial	-3540
ization	-3541
▁beyond	-3542
▁simply	-3543
▁letters	-3544
▁character	-3545
arm	-3546
val	-3547
▁ho	-3548
amin	-3549
look	-3550
▁Aye	-3551
▁ign	-3552
▁lic	-3553
▁pil	-3554
▁pun	-3555
stood	-3556
▁Cent	-3557
▁suck	-3558
▁susp	-3559
ground	-3560
▁introdu	-3561
▁motherfuck	-3562
ex	-3563
ays	-3564
ees	-3565
iat	-3566
▁di	-3567
came	-3568
▁Pre	-3569
aring	-3570
velop	-3571
▁Soon	-3572
▁size	-3573
▁wast	-3574
▁enemy	-3575
▁large	-3576
▁plant	-3577
▁Norman	-3578
mergency	-3579
▁natural	-3580
▁murdered	-3581
!"	-3582
AY	-3583
chan	-3584
this	-3585
▁McC	-3586
▁pin	-3587
▁pus	-3588
▁rub	-3589
▁tie	-3590
iliar	-3591
iring	-3592
itted	-3593
usion	-3594
▁Life	-3595
▁clim	-3596
▁desk	-3597
▁farm	-3598
▁sees	-3599
▁wine	-3600
▁Robert	-3601
▁Things	-3602
▁numbers	-3603
asc	-3604
▁Veg	-3605
▁due	-3606
▁Grace	-3607
▁Jason	-3608
▁Satur	-3609
▁champ	-3610
▁exist	-3611
▁hello	-3612
▁hired	-3613
▁proof	-3614
▁raise	-3615
▁remain	-3616
▁decision	-3617
▁following	-3618
▁conversation	-3619
fle	-3620
par	-3621
tor	-3622
aced	-3623
rief	-3624
▁Had	-3625
▁deg	-3626
ville	-3627
▁Brad	-3628
▁Brit	-3629
▁Mick	-3630
▁heat	-3631
▁held	-3632
▁rout	-3633
▁Green	-3634
▁langu	-3635
ibility	-3636
▁further	-3637
▁Saturday	-3638
va	-3639
she	-3640
arch	-3641
▁Wha	-3642
iling	-3643
▁cous	-3644
▁dont	-3645
▁duty	-3646
▁incl	-3647
▁orig	-3648
▁Franc	-3649
▁Miles	-3650
▁Super	-3651
▁beach	-3652
▁bridge	-3653
▁famous	-3654
▁lonely	-3655
▁suddenly	-3656
gs	-3657
gly	-3658
ila	-3659
omm	-3660
loyd	-3661
▁Bad	-3662
ality	-3663
field	-3664
▁Blue	-3665
▁heads	-3666
▁river	-3667
▁rough	-3668
▁hiding	-3669
▁possibly	-3670
AM	-3671
AS	-3672
▁Li	-3673
oned	-3674
▁Wes	-3675
▁Yah	-3676
▁obs	-3677
▁mama	-3678
▁faith	-3679
▁fella	-3680
▁ideas	-3681
▁lookin	-3682
▁passed	-3683
▁pocket	-3684
▁deserve	-3685
▁kitchen	-3686
▁matters	-3687
icy	-3688
pect	-3689
▁Bud	-3690
▁Jac	-3691
▁map	-3692
orter	-3693
▁Fort	-3694
▁arms	-3695
▁Trust	-3696
▁becom	-3697
▁crack	-3698
▁event	-3699
▁stars	-3700
▁whose	-3701
▁master	-3702
▁curious	-3703
▁monster	-3704
▁opportun	-3705
▁shooting	-3706
ez	-3707
▁Ob	-3708
othy	-3709
▁Ber	-3710
▁bat	-3711
▁Nope	-3712
▁vide	-3713
▁Lloyd	-3714
▁Vegas	-3715
ference	-3716
▁assist	-3717
▁became	-3718
▁bigger	-3719
▁crying	-3720
▁checked	-3721
▁Du	-3722
elle	-3723
▁Mur	-3724
▁rom	-3725
igned	-3726
▁harm	-3727
▁laid	-3728
▁lift	-3729
▁Count	-3730
▁ghost	-3731
▁older	-3732
▁shows	-3733
▁sword	-3734
▁techn	-3735
▁Wouldn	-3736
▁bottle	-3737
▁custom	-3738
ann	-3739
col	-3740
osh	-3741
'...	-3742
akin	-3743
ilty	-3744
▁Hel	-3745
asons	-3746
board	-3747
▁Part	-3748
▁nail	-3749
▁bodies	-3750
▁pounds	-3751
▁repres	-3752
▁hearing	-3753
▁somehow	-3754
▁familiar	-3755
▁recognize	-3756
▁seriously	-3757
▁sweetheart	-3758
.,	-3759
ses	-3760
▁ST	-3761
"...	-3762
inct	-3763
▁Bra	-3764
▁Law	-3765
idden	-3766
ondon	-3767
▁Army	-3768
▁Buzz	-3769
▁Happ	-3770
▁thro	-3771
▁green	-3772
cellent	-3773
▁Thomas	-3774
▁incred	-3775
▁prefer	-3776
▁satisf	-3777
▁Majesty	-3778
▁excited	-3779
▁request	-3780
▁comfortable	-3781
LE	-3782
min	-3783
▁Cas	-3784
under	-3785
▁Dead	-3786
▁tour	-3787
iction	-3788
▁knife	-3789
▁magic	-3790
▁nurse	-3791
▁Indian	-3792
▁London	-3793
▁appear	-3794
▁project	-3795
▁teacher	-3796
ule	-3797
yan	-3798
▁hi	-3799
oman	-3800
▁dry	-3801
ising	-3802
itary	-3803
▁Sund	-3804
ealous	-3805
rength	-3806
▁Death	-3807
▁purpose	-3808
▁horrible	-3809
ca	-3810
aire	-3811
ceed	-3812
cise	-3813
▁Cut	-3814
prise	-3815
▁Gord	-3816
▁jour	-3817
▁upon	-3818
ressed	-3819
▁cares	-3820
▁lights	-3821
▁nightmare	-3822
▁Ca	-3823
omed	-3824
▁Ver	-3825
hetic	-3826
▁Clau	-3827
▁rain	-3828
▁claim	-3829
▁lines	-3830
▁spoke	-3831
▁beauty	-3832
▁descri	-3833
▁hoping	-3834
▁answers	-3835
▁medical	-3836
▁vacation	-3837
▁definitely	-3838
AD	-3839
ago	-3840
oid	-3841
sed	-3842
▁FUCK	-3843
▁Mark	-3844
▁butt	-3845
▁comb	-3846
▁Gimme	-3847
▁magaz	-3848
▁pants	-3849
▁access	-3850
▁camera	-3851
▁speech	-3852
▁Dorothy	-3853
▁England	-3854
▁jealous	-3855
▁gentleman	-3856
▁perfectly	-3857
don	-3858
rel	-3859
tes	-3860
▁10	-3861
face	-3862
inci	-3863
▁cre	-3864
ening	-3865
geant	-3866
gging	-3867
using	-3868
vered	-3869
▁Adam	-3870
▁Know	-3871
▁Luke	-3872
▁Step	-3873
▁dogs	-3874
▁push	-3875
▁rule	-3876
▁sour	-3877
▁Bring	-3878
▁pregn	-3879
▁speed	-3880
▁Mexico	-3881
▁employ	-3882
▁leaves	-3883
pecially	-3884
▁meaning	-3885
▁bringing	-3886
▁carrying	-3887
▁property	-3888
▁necessary	-3889
▁Ot	-3890
▁Ow	-3891
▁Hot	-3892
▁mut	-3893
▁Friday	-3894
▁weight	-3895
▁weather	-3896
▁written	-3897
yal	-3898
▁OF	-3899
ergy	-3900
iers	-3901
itty	-3902
ucky	-3903
▁Run	-3904
▁van	-3905
asion	-3906
fered	-3907
istic	-3908
▁Easy	-3909
▁meat	-3910
▁stom	-3911
▁Haven	-3912
▁Until	-3913
▁sixty	-3914
▁wound	-3915
▁bright	-3916
▁distur	-3917
▁escape	-3918
▁nights	-3919
▁pieces	-3920
▁spirit	-3921
▁develop	-3922
▁mountain	-3923
▁immediately	-3924
gie	-3925
ini	-3926
lebr	-3927
uses	-3928
▁Spe	-3929
ledge	-3930
▁Aust	-3931
▁Euro	-3932
▁Annie	-3933
▁Cause	-3934
▁Spock	-3935
▁cards	-3936
▁bottom	-3937
▁brains	-3938
▁closer	-3939
▁Russian	-3940
▁arrange	-3941
▁watched	-3942
▁weapons	-3943
▁criminal	-3944
▁intellig	-3945
▁Goodnight	-3946
▁disappear	-3947
No	-3948
We	-3949
dia	-3950
itiz	-3951
▁Wil	-3952
▁ver	-3953
▁Joey	-3954
▁port	-3955
▁ugly	-3956
father	-3957
▁Relax	-3958
▁crowd	-3959
▁fresh	-3960
▁sport	-3961
▁truly	-3962
▁uncle	-3963
▁guilty	-3964
▁pissed	-3965
▁poison	-3966
▁airport	-3967
▁biggest	-3968
▁goodbye	-3969
▁practice	-3970
▁Professor	-3971
▁insurance	-3972
ato	-3973
cut	-3974
urt	-3975
bers	-3976
gers	-3977
▁Rep	-3978
▁Yep	-3979
▁sna	-3980
▁Baby	-3981
▁Danny	-3982
▁threw	-3983
▁borrow	-3984
▁object	-3985
▁scient	-3986
▁sooner	-3987
▁suicide	-3988
ERE	-3989
ena	-3990
sey	-3991
▁Ant	-3992
ients	-3993
▁Wood	-3994
▁bene	-3995
▁blew	-3996
▁dise	-3997
▁ears	-3998
▁grab	-3999
▁hors	-4000
▁loud	-4001
▁mood	-4002
▁Susan	-4003
▁aware	-4004
▁balls	-4005
▁leads	-4006
▁usual	-4007
▁Sunday	-4008
▁client	-4009
▁garden	-4010
▁signal	-4011
▁animals	-4012
gl	-4013
imp	-4014
rit	-4015
ted	-4016
▁ur	-4017
rant	-4018
▁Far	-4019
▁Pal	-4020
▁oil	-4021
▁tar	-4022
▁Pete	-4023
▁Rock	-4024
▁prov	-4025
▁rese	-4026
fortun	-4027
romise	-4028
▁local	-4029
▁Unless	-4030
▁choose	-4031
▁opened	-4032
▁dressed	-4033
▁believed	-4034
▁language	-4035
▁planning	-4036
▁emergency	-4037
▁expecting	-4038
bl	-4039
da	-4040
ita	-4041
▁Gir	-4042
▁Hmm	-4043
derer	-4044
ipper	-4045
▁Open	-4046
▁drove	-4047
▁buried	-4048
▁expens	-4049
▁stayed	-4050
▁Johnson	-4051
▁license	-4052
▁strength	-4053
▁Commander	-4054
0.	-4055
And	-4056
kin	-4057
down	-4058
emme	-4059
▁Nat	-4060
▁fre	-4061
phone	-4062
incess	-4063
▁Shall	-4064
▁Europe	-4065
▁busted	-4066
▁talent	-4067
▁theory	-4068
▁writer	-4069
▁Francis	-4070
▁allowed	-4071
▁especially	-4072
▁everywhere	-4073
▁neighborhood	-4074
▁Ke	-4075
stit	-4076
vere	-4077
▁Dun	-4078
▁Kat	-4079
▁boo	-4080
▁....	-4081
▁bite	-4082
▁mail	-4083
▁wash	-4084
▁whis	-4085
▁Their	-4086
▁match	-4087
▁react	-4088
▁wheel	-4089
arently	-4090
▁Thirty	-4091
▁awhile	-4092
▁cousin	-4093
▁easier	-4094
▁pardon	-4095
▁Certain	-4096
▁turning	-4097
▁followed	-4098
▁sometime	-4099
nin	-4100
pes	-4101
▁DO	-4102
▁Sy	-4103
▁ok	-4104
hold	-4105
▁Des	-4106
ashed	-4107
essed	-4108
▁Ryan	-4109
▁Scot	-4110
▁bare	-4111
▁coat	-4112
▁page	-4113
▁wire	-4114
ording	-4115
▁above	-4116
▁States	-4117
▁assume	-4118
▁damage	-4119
▁damned	-4120
▁energy	-4121
▁shower	-4122
▁British	-4123
▁Tonight	-4124
▁complain	-4125
▁opportunity	-4126
?'	-4127
▁Mm	-4128
▁Pe	-4129
empt	-4130
ussy	-4131
▁log	-4132
ender	-4133
onder	-4134
wards	-4135
▁inde	-4136
▁Enter	-4137
▁Grant	-4138
▁Larry	-4139
▁divorce	-4140
▁emotion	-4141
▁quickly	-4142
▁pressure	-4143
▁operation	-4144
ratulations	-4145
eez	-4146
▁Ty	-4147
mber	-4148
road	-4149
than	-4150
▁Air	-4151
▁Res	-4152
▁Tex	-4153
▁fem	-4154
▁fle	-4155
▁mat	-4156
▁tit	-4157
arant	-4158
inese	-4159
▁Poor	-4160
▁cree	-4161
▁gang	-4162
▁repe	-4163
▁Roger	-4164
▁World	-4165
▁mirac	-4166
osition	-4167
▁weapon	-4168
▁obviously	-4169
isc	-4170
law	-4171
▁Ra	-4172
asty	-4173
▁Hit	-4174
▁Low	-4175
▁ate	-4176
▁bum	-4177
▁rev	-4178
▁Jose	-4179
▁Karl	-4180
▁scri	-4181
▁tear	-4182
▁tran	-4183
▁sales	-4184
▁Mickey	-4185
▁United	-4186
▁driver	-4187
ointment	-4188
▁Without	-4189
▁extreme	-4190
▁nowhere	-4191
▁expected	-4192
▁mentioned	-4193
▁personally	-4194
ox	-4195
fit	-4196
▁vol	-4197
▁bear	-4198
▁liar	-4199
overed	-4200
undred	-4201
▁celebr	-4202
▁bedroom	-4203
▁chicken	-4204
▁helping	-4205
▁reasons	-4206
▁seventy	-4207
▁communic	-4208
▁Hollywood	-4209
six	-4210
▁ON	-4211
▁um	-4212
aker	-4213
bage	-4214
bing	-4215
▁Day	-4216
▁Ham	-4217
▁Mmm	-4218
▁rum	-4219
aylor	-4220
▁Ital	-4221
ension	-4222
▁birds	-4223
▁sneak	-4224
▁trade	-4225
ilities	-4226
▁jacket	-4227
▁throat	-4228
▁science	-4229
▁Sergeant	-4230
▁professional	-4231
GH	-4232
Th	-4233
oe	-4234
esh	-4235
gon	-4236
rupt	-4237
▁Leo	-4238
▁Nin	-4239
seven	-4240
▁Chic	-4241
▁Cool	-4242
▁Earl	-4243
▁Home	-4244
▁Whoa	-4245
▁fing	-4246
▁ment	-4247
▁pers	-4248
▁vill	-4249
▁serve	-4250
▁shape	-4251
▁Gordon	-4252
▁Sidney	-4253
▁battle	-4254
▁garage	-4255
▁Chinese	-4256
▁deliver	-4257
▁forgotten	-4258
cean	-4259
▁Tre	-4260
▁rat	-4261
.....	-4262
▁Benj	-4263
▁Down	-4264
▁Supp	-4265
▁craw	-4266
▁hated	-4267
itation	-4268
▁Elaine	-4269
▁Taylor	-4270
rilliant	-4271
▁manager	-4272
▁prepared	-4273
▁particular	-4274
bly	-4275
case	-4276
▁Mil	-4277
▁fed	-4278
▁imm	-4279
▁Been	-4280
▁Mond	-4281
▁jerk	-4282
▁mass	-4283
▁pair	-4284
▁thou	-4285
▁Honor	-4286
▁Offic	-4287
▁doors	-4288
▁files	-4289
▁shock	-4290
▁total	-4291
itchell	-4292
▁flying	-4293
▁market	-4294
▁stomach	-4295
▁murderer	-4296
▁positive	-4297
▁Certainly	-4298
ij	-4299
bbed	-4300
ueen	-4301
▁Haw	-4302
▁Naw	-4303
▁flo	-4304
▁hig	-4305
rance	-4306
▁Work	-4307
▁grad	-4308
▁Baron	-4309
▁Rache	-4310
▁Seven	-4311
▁Sweet	-4312
▁accom	-4313
▁legal	-4314
ulation	-4315
▁bullet	-4316
▁patter	-4317
▁square	-4318
▁Anybody	-4319
▁flowers	-4320
▁regular	-4321
▁streets	-4322
▁Mitchell	-4323
▁represent	-4324
He	-4325
fl	-4326
udy	-4327
▁Ac	-4328
▁Cub	-4329
▁Hor	-4330
▁Mel	-4331
▁Ros	-4332
▁shr	-4333
▁flat	-4334
▁hunt	-4335
icious	-4336
itions	-4337
▁Ready	-4338
▁among	-4339
▁issue	-4340
▁medic	-4341
▁storm	-4342
onsense	-4343
ression	-4344
▁Daniel	-4345
▁boring	-4346
▁burned	-4347
▁faster	-4348
▁ladies	-4349
▁social	-4350
▁strike	-4351
▁picking	-4352
▁pregnant	-4353
▁responsibility	-4354
----------------	-4355
udd	-4356
▁ju	-4357
icks	-4358
kins	-4359
▁Art	-4360
▁Chi	-4361
▁Mau	-4362
▁net	-4363
eight	-4364
▁Alan	-4365
▁Hild	-4366
▁Sand	-4367
▁Tran	-4368
▁dude	-4369
▁earl	-4370
▁soci	-4371
▁whom	-4372
▁wise	-4373
ursday	-4374
▁bleed	-4375
▁spare	-4376
▁stink	-4377
▁tapes	-4378
ruction	-4379
▁regret	-4380
▁doctors	-4381
▁pretend	-4382
▁restaur	-4383
11	-4384
CH	-4385
zo	-4386
ipe	-4387
▁Cy	-4388
▁Ly	-4389
▁Wr	-4390
▁Yo	-4391
▁nu	-4392
ston	-4393
▁Die	-4394
▁Kay	-4395
▁Las	-4396
▁pet	-4397
asure	-4398
venge	-4399
▁ends	-4400
▁exec	-4401
▁milk	-4402
▁ours	-4403
▁Happy	-4404
▁Hurry	-4405
▁Might	-4406
▁moves	-4407
▁separ	-4408
▁bloody	-4409
▁sexual	-4410
▁switch	-4411
▁Welcome	-4412
▁fortune	-4413
▁process	-4414
▁Thursday	-4415
▁breaking	-4416
▁someplace	-4417
▁frightened	-4418
ST	-4419
spe	-4420
uman	-4421
▁Him	-4422
▁Jon	-4423
▁tun	-4424
▁wis	-4425
ograp	-4426
▁deli	-4427
▁eggs	-4428
▁ruin	-4429
▁snow	-4430
gative	-4431
▁broad	-4432
▁crash	-4433
▁kidna	-4434
▁player	-4435
▁powerful	-4436
▁destroyed	-4437
▁Sn	-4438
▁Tim	-4439
▁doc	-4440
isted	-4441
ordin	-4442
▁Cole	-4443
▁disg	-4444
▁North	-4445
▁Steve	-4446
▁awake	-4447
▁fixed	-4448
▁plays	-4449
▁eleven	-4450
▁manage	-4451
▁script	-4452
▁Chicago	-4453
▁covered	-4454
▁dealing	-4455
OT	-4456
uz	-4457
▁Eh	-4458
▁Ms	-4459
ores	-4460
vior	-4461
▁AND	-4462
▁Acc	-4463
▁Def	-4464
▁Vir	-4465
▁sky	-4466
alley	-4467
ammit	-4468
order	-4469
swald	-4470
▁Coll	-4471
▁Jane	-4472
▁Walk	-4473
▁disp	-4474
▁pure	-4475
▁unif	-4476
▁final	-4477
▁finds	-4478
▁sever	-4479
▁tryin	-4480
▁Joseph	-4481
▁Junior	-4482
▁saving	-4483
▁general	-4484
▁letting	-4485
▁Benjamin	-4486
▁speaking	-4487
▁Detective	-4488
ILL	-4489
rad	-4490
▁20	-4491
▁Sa	-4492
give	-4493
goti	-4494
▁Amy	-4495
▁abs	-4496
althy	-4497
▁Anna	-4498
▁Real	-4499
▁dies	-4500
▁tong	-4501
▁expert	-4502
▁mostly	-4503
▁waited	-4504
▁chances	-4505
▁changes	-4506
▁concern	-4507
▁receive	-4508
▁Williams	-4509
▁motherfucker	-4510
hia	-4511
hol	-4512
oph	-4513
thy	-4514
▁ta	-4515
ased	-4516
mond	-4517
▁Jap	-4518
▁Kir	-4519
▁Lis	-4520
▁amb	-4521
▁ban	-4522
▁scr	-4523
▁sin	-4524
▁wet	-4525
aning	-4526
ators	-4527
izing	-4528
▁Wade	-4529
▁lies	-4530
▁tail	-4531
▁trap	-4532
omeday	-4533
▁Clark	-4534
▁dozen	-4535
▁noise	-4536
▁print	-4537
▁trunk	-4538
olution	-4539
▁Master	-4540
▁clever	-4541
▁desper	-4542
▁cigarettes	-4543
.?	-4544
AL	-4545
gen	-4546
iod	-4547
▁Ap	-4548
olen	-4549
ached	-4550
orney	-4551
uding	-4552
▁Kane	-4553
▁fund	-4554
arence	-4555
▁Brown	-4556
▁Hildy	-4557
▁Sonny	-4558
▁chest	-4559
▁video	-4560
▁Rachel	-4561
▁amount	-4562
▁buying	-4563
▁recall	-4564
▁disease	-4565
▁quarter	-4566
▁terrific	-4567
▁thoughts	-4568
▁disappeared	-4569
mo	-4570
your	-4571
▁Jam	-4572
▁non	-4573
▁saf	-4574
▁unc	-4575
aches	-4576
▁Fire	-4577
▁data	-4578
▁fake	-4579
▁junk	-4580
reedom	-4581
▁Funny	-4582
▁cream	-4583
▁devil	-4584
▁grave	-4585
▁shame	-4586
▁slept	-4587
▁Monday	-4588
▁target	-4589
▁falling	-4590
▁funeral	-4591
▁invited	-4592
▁Clarence	-4593
▁attitude	-4594
▁attorney	-4595
▁research	-4596
ona	-4597
▁Kn	-4598
iled	-4599
ummy	-4600
umst	-4601
▁Les	-4602
▁Ven	-4603
▁Win	-4604
▁lif	-4605
▁por	-4606
▁hire	-4607
▁pian	-4608
▁poet	-4609
▁roof	-4610
▁woke	-4611
cience	-4612
▁nerve	-4613
▁sweat	-4614
▁virus	-4615
aterial	-4616
▁Oswald	-4617
▁toward	-4618
▁Thought	-4619
▁created	-4620
▁earlier	-4621
▁thinkin	-4622
▁continue	-4623
▁Enterprise	-4624
▁downstairs	-4625
ips	-4626
org	-4627
hand	-4628
onds	-4629
▁Sue	-4630
▁fac	-4631
▁East	-4632
▁Pull	-4633
▁THAT	-4634
▁Theo	-4635
▁reck	-4636
▁Start	-4637
▁activ	-4638
▁grown	-4639
▁hates	-4640
▁north	-4641
▁pussy	-4642
▁spell	-4643
▁Police	-4644
▁lesson	-4645
▁recomm	-4646
▁Italian	-4647
▁besides	-4648
▁guarant	-4649
▁ordered	-4650
▁sending	-4651
▁smoking	-4652
▁newspaper	-4653
bon	-4654
aves	-4655
ella	-4656
▁Kid	-4657
▁bal	-4658
icked	-4659
▁Cons	-4660
▁Half	-4661
▁Jess	-4662
▁Lady	-4663
▁Sher	-4664
▁trad	-4665
though	-4666
utiful	-4667
▁Gotta	-4668
▁Jones	-4669
▁Sally	-4670
▁loyal	-4671
▁sched	-4672
▁shirt	-4673
▁swell	-4674
▁talks	-4675
utation	-4676
▁France	-4677
▁engine	-4678
▁transp	-4679
▁Officer	-4680
▁dancing	-4681
▁eighteen	-4682
▁laughing	-4683
▁cigarette	-4684
▁knowledge	-4685
ux	-4686
oms	-4687
ieur	-4688
nedy	-4689
roke	-4690
▁Lam	-4691
▁jew	-4692
▁nut	-4693
▁Feel	-4694
▁Reed	-4695
▁Tony	-4696
▁huge	-4697
▁infl	-4698
▁plus	-4699
▁Money	-4700
▁Seems	-4701
▁cabin	-4702
▁pills	-4703
▁remem	-4704
onsieur	-4705
▁Couldn	-4706
▁tellin	-4707
▁Kennedy	-4708
▁finding	-4709
▁touched	-4710
▁magazine	-4711
▁military	-4712
▁physical	-4713
▁incredible	-4714
▁practically	-4715
gy	-4716
▁da	-4717
esar	-4718
omen	-4719
ture	-4720
uite	-4721
vert	-4722
▁Jab	-4723
▁Won	-4724
allow	-4725
clear	-4726
hered	-4727
▁Best	-4728
▁Hang	-4729
▁WHAT	-4730
▁chem	-4731
▁elev	-4732
abitch	-4733
▁Margo	-4734
▁actor	-4735
▁joint	-4736
▁parts	-4737
▁south	-4738
▁artist	-4739
▁commit	-4740
▁negoti	-4741
",	-4742
UR	-4743
awn	-4744
load	-4745
ourt	-4746
▁Den	-4747
▁Hom	-4748
▁Ram	-4749
▁Sur	-4750
▁enc	-4751
▁heh	-4752
ounce	-4753
▁Aunt	-4754
▁Eric	-4755
▁firm	-4756
▁laws	-4757
▁maid	-4758
▁rare	-4759
▁shad	-4760
▁yard	-4761
▁Night	-4762
▁Speak	-4763
▁citiz	-4764
▁exact	-4765
▁occur	-4766
▁rooms	-4767
▁whore	-4768
▁Caesar	-4769
▁betray	-4770
▁horses	-4771
▁shield	-4772
▁therap	-4773
▁concent	-4774
▁garbage	-4775
▁planned	-4776
▁showing	-4777
▁arrested	-4778
▁realized	-4779
▁romantic	-4780
2.	-4781
SE	-4782
etch	-4783
▁Dis	-4784
▁Mat	-4785
▁Tur	-4786
bered	-4787
igger	-4788
usual	-4789
▁Ange	-4790
▁Cast	-4791
▁Cont	-4792
▁Move	-4793
▁dare	-4794
▁dirt	-4795
▁dust	-4796
▁tall	-4797
iverse	-4798
▁Ellie	-4799
▁Jacqu	-4800
▁clock	-4801
▁condu	-4802
▁smile	-4803
▁drinks	-4804
▁oughta	-4805
▁ruined	-4806
▁screen	-4807
▁tongue	-4808
▁confused	-4809
▁creature	-4810
▁experiment	-4811
▁understood	-4812
---	-4813
ara	-4814
net	-4815
▁15	-4816
ancy	-4817
gger	-4818
ilos	-4819
play	-4820
▁Ahh	-4821
▁Bel	-4822
▁nar	-4823
erves	-4824
▁Beth	-4825
▁jobs	-4826
▁liqu	-4827
▁prob	-4828
mother	-4829
▁blank	-4830
▁naked	-4831
▁pilot	-4832
eration	-4833
▁Church	-4834
▁decent	-4835
▁likely	-4836
▁perfor	-4837
▁sevent	-4838
▁slight	-4839
▁terror	-4840
▁Neither	-4841
▁Perfect	-4842
▁burning	-4843
▁example	-4844
▁opening	-4845
▁pulling	-4846
▁brilliant	-4847
▁restaurant	-4848
▁investigation	-4849
aa	-4850
ef	-4851
cey	-4852
cra	-4853
hop	-4854
▁fe	-4855
ruit	-4856
▁Tot	-4857
eline	-4858
▁Gard	-4859
▁Hope	-4860
▁guts	-4861
▁lips	-4862
▁vamp	-4863
ateful	-4864
▁Mommy	-4865
▁Santa	-4866
▁chief	-4867
▁hurts	-4868
▁shark	-4869
▁staff	-4870
▁cancer	-4871
▁genius	-4872
▁policy	-4873
▁result	-4874
▁details	-4875
▁glasses	-4876
▁reality	-4877
▁soldier	-4878
specially	-4879
ari	-4880
oci	-4881
▁ah	-4882
▁ol	-4883
ousy	-4884
ples	-4885
rees	-4886
▁sed	-4887
hamed	-4888
holes	-4889
ilies	-4890
there	-4891
ucker	-4892
▁Send	-4893
▁Such	-4894
▁grew	-4895
ashion	-4896
ential	-4897
▁Again	-4898
▁Linda	-4899
▁Sarah	-4900
▁Texas	-4901
▁brief	-4902
▁plain	-4903
▁style	-4904
▁trail	-4905
▁walks	-4906
▁Jackie	-4907
▁Simone	-4908
▁Sister	-4909
▁indeed	-4910
▁member	-4911
▁nearly	-4912
▁Fucking	-4913
▁selling	-4914
▁thousands	-4915
▁connection	-4916
▁reputation	-4917
uns	-4918
▁IS	-4919
iece	-4920
otic	-4921
rict	-4922
with	-4923
▁Sil	-4924
ences	-4925
peror	-4926
▁Boss	-4927
▁Play	-4928
▁prim	-4929
▁pump	-4930
▁rate	-4931
▁sett	-4932
▁Japan	-4933
▁Jesse	-4934
▁Today	-4935
▁ended	-4936
▁paint	-4937
▁punch	-4938
hundred	-4939
▁health	-4940
▁invent	-4941
▁signed	-4942
▁spring	-4943
▁fingers	-4944
▁offered	-4945
▁several	-4946
▁tickets	-4947
▁original	-4948
▁carefully	-4949
▁entertain	-4950
▁Especially	-4951
▁complicated	-4952
▁Congratulations	-4953
IA	-4954
add	-4955
did	-4956
lan	-4957
phe	-4958
ante	-4959
oops	-4960
▁---	-4961
▁Cou	-4962
▁Jer	-4963
▁Los	-4964
▁obl	-4965
▁opt	-4966
ittee	-4967
iving	-4968
ureau	-4969
▁Bart	-4970
▁rabb	-4971
▁seal	-4972
▁Nicky	-4973
▁Stand	-4974
▁cents	-4975
ability	-4976
▁Second	-4977
▁riding	-4978
▁freedom	-4979
▁heading	-4980
▁circumst	-4981
▁midnight	-4982
▁partners	-4983
▁transfer	-4984
▁impressed	-4985
OO	-4986
cel	-4987
cil	-4988
fif	-4989
raw	-4990
see	-4991
book	-4992
good	-4993
lock	-4994
▁Med	-4995
▁Squ	-4996
arily	-4997
▁mile	-4998
▁rush	-4999
▁term	-5000
▁toil	-5001
uesday	-5002
▁Force	-5003
▁brave	-5004
▁illeg	-5005
▁relig	-5006
▁terms	-5007
▁Almost	-5008
▁Anyone	-5009
▁Either	-5010
▁Island	-5011
▁brings	-5012
▁arrived	-5013
▁attempt	-5014
▁belongs	-5015
▁breathe	-5016
▁product	-5017
▁unusual	-5018
▁instruct	-5019
▁material	-5020
▁secretary	-5021
▁Department	-5022
iac	-5023
pet	-5024
▁Kr	-5025
▁Wy	-5026
bles	-5027
spir	-5028
▁Men	-5029
▁Rod	-5030
▁Rom	-5031
▁Val	-5032
▁fro	-5033
▁sou	-5034
andon	-5035
oston	-5036
ulate	-5037
▁Gold	-5038
▁Head	-5039
▁Wasn	-5040
▁anti	-5041
▁lord	-5042
▁loss	-5043
▁mort	-5044
▁Jabez	-5045
▁Kelly	-5046
▁sayin	-5047
▁Claire	-5048
▁associ	-5049
▁defend	-5050
▁desire	-5051
▁eighty	-5052
▁psycho	-5053
▁rights	-5054
▁Tuesday	-5055
▁ashamed	-5056
▁clearly	-5057
▁society	-5058
▁approach	-5059
▁baseball	-5060
▁behavior	-5061
▁psychiat	-5062
azz	-5063
hal	-5064
ops	-5065
agne	-5066
quot	-5067
▁Gal	-5068
▁Naz	-5069
▁Nix	-5070
▁Ron	-5071
▁tim	-5072
rated	-5073
▁Fair	-5074
▁Mont	-5075
▁Sean	-5076
▁Wend	-5077
atives	-5078
▁facts	-5079
▁piano	-5080
▁prior	-5081
▁score	-5082
▁stone	-5083
ologist	-5084
▁Carter	-5085
▁Honest	-5086
▁admire	-5087
▁demand	-5088
▁insult	-5089
atherine	-5090
ological	-5091
▁wasting	-5092
▁audience	-5093
▁screaming	-5094
▁telephone	-5095
▁disappoint	-5096
rim	-5097
ued	-5098
▁Ba	-5099
Beat	-5100
llen	-5101
oard	-5102
reck	-5103
swer	-5104
▁Mal	-5105
▁OUT	-5106
▁Off	-5107
▁hyp	-5108
▁jam	-5109
▁jud	-5110
cient	-5111
▁Both	-5112
▁race	-5113
▁tent	-5114
▁Fifty	-5115
▁Young	-5116
▁mixed	-5117
▁relie	-5118
▁sandw	-5119
▁trees	-5120
▁Edward	-5121
▁aboard	-5122
▁create	-5123
▁kicked	-5124
▁reward	-5125
▁stolen	-5126
▁downtown	-5127
▁painting	-5128
▁otherwise	-5129
▁president	-5130
IM	-5131
▁Amb	-5132
▁Dev	-5133
▁Use	-5134
▁pit	-5135
three	-5136
▁Bird	-5137
▁Flor	-5138
▁Serv	-5139
▁acqu	-5140
▁gain	-5141
▁radi	-5142
▁Alice	-5143
▁Lenny	-5144
▁Terry	-5145
▁alarm	-5146
▁drown	-5147
▁ocean	-5148
▁swing	-5149
▁thief	-5150
▁title	-5151
▁Madame	-5152
▁Secret	-5153
▁convin	-5154
▁intend	-5155
▁invite	-5156
▁monkey	-5157
▁spread	-5158
▁Promise	-5159
▁screwed	-5160
▁distance	-5161
▁families	-5162
▁grateful	-5163
▁official	-5164
▁soldiers	-5165
▁introduce	-5166
OP	-5167
Oh	-5168
tt	-5169
???	-5170
anz	-5171
dom	-5172
has	-5173
ura	-5174
agon	-5175
each	-5176
geon	-5177
iami	-5178
otch	-5179
oved	-5180
phan	-5181
ware	-5182
▁Bat	-5183
▁GET	-5184
▁Gar	-5185
▁Tor	-5186
▁Web	-5187
▁foc	-5188
▁inj	-5189
▁led	-5190
arlin	-5191
▁Anne	-5192
▁Dire	-5193
▁Lisa	-5194
▁Mind	-5195
▁Read	-5196
▁Sail	-5197
▁Save	-5198
▁Wall	-5199
▁cure	-5200
▁resc	-5201
▁sail	-5202
▁scar	-5203
ipment	-5204
▁Court	-5205
▁arran	-5206
▁finan	-5207
▁loser	-5208
▁nasty	-5209
▁sonof	-5210
ception	-5211
▁agreed	-5212
▁assign	-5213
▁center	-5214
▁compet	-5215
▁hidden	-5216
▁safety	-5217
▁Darling	-5218
▁depends	-5219
▁singing	-5220
▁sixteen	-5221
▁occasion	-5222
▁performan	-5223
▁statement	-5224
▁appointment	-5225
IC	-5226
kn	-5227
xy	-5228
sen	-5229
▁Ir	-5230
rove	-5231
▁INT	-5232
▁Ren	-5233
▁gri	-5234
happy	-5235
ouses	-5236
uncey	-5237
▁Calm	-5238
▁Nine	-5239
▁Rand	-5240
▁YOUR	-5241
▁diam	-5242
▁drag	-5243
enture	-5244
▁China	-5245
▁Miami	-5246
▁armed	-5247
▁humor	-5248
▁shots	-5249
▁Answer	-5250
▁butter	-5251
▁forced	-5252
▁period	-5253
▁Forgive	-5254
▁capable	-5255
▁justice	-5256
▁popular	-5257
▁exciting	-5258
▁wondered	-5259
▁Beautiful	-5260
▁equipment	-5261
▁HA	-5262
onde	-5263
▁Ass	-5264
▁Pet	-5265
▁Tob	-5266
▁arg	-5267
▁lun	-5268
▁mob	-5269
▁unf	-5270
fleet	-5271
▁Made	-5272
▁Shhh	-5273
▁impl	-5274
▁odds	-5275
▁pill	-5276
▁Afric	-5277
▁Diego	-5278
▁Going	-5279
▁Wayne	-5280
▁bills	-5281
▁grade	-5282
▁kinds	-5283
▁lousy	-5284
▁prick	-5285
▁stood	-5286
▁tooth	-5287
▁affect	-5288
▁babies	-5289
▁barely	-5290
▁cooper	-5291
▁female	-5292
▁filled	-5293
▁fought	-5294
▁defense	-5295
▁knocked	-5296
▁miracle	-5297
▁offense	-5298
▁whoever	-5299
▁charming	-5300
▁electric	-5301
AA	-5302
NA	-5303
ols	-5304
why	-5305
▁12	-5306
▁BE	-5307
hers	-5308
ping	-5309
uffy	-5310
▁NOT	-5311
▁Sug	-5312
▁mal	-5313
aming	-5314
ially	-5315
iance	-5316
never	-5317
▁Marc	-5318
▁dope	-5319
▁edge	-5320
▁pred	-5321
▁tied	-5322
▁Marsh	-5323
▁Sleep	-5324
▁bored	-5325
▁knees	-5326
▁woods	-5327
▁Howard	-5328
▁Russia	-5329
▁Wonder	-5330
▁insist	-5331
▁source	-5332
▁spoken	-5333
▁underw	-5334
▁Frankie	-5335
▁Patrick	-5336
▁hunting	-5337
▁student	-5338
▁Chauncey	-5339
▁Francisco	-5340
▁Starfleet	-5341
'!	-5342
VER	-5343
agn	-5344
bra	-5345
ida	-5346
til	-5347
▁ye	-5348
▁DON	-5349
▁Gab	-5350
▁Imp	-5351
▁Sat	-5352
▁bug	-5353
▁fra	-5354
▁thy	-5355
▁toy	-5356
▁unt	-5357
atory	-5358
sters	-5359
stery	-5360
▁Burn	-5361
▁Care	-5362
▁Hand	-5363
▁Plus	-5364
▁cake	-5365
▁jury	-5366
▁lack	-5367
▁slip	-5368
thirty	-5369
verage	-5370
▁Times	-5371
▁bones	-5372
▁flesh	-5373
▁kills	-5374
▁novel	-5375
▁panic	-5376
▁value	-5377
ailable	-5378
▁Enough	-5379
▁Pardon	-5380
▁advant	-5381
▁design	-5382
▁explos	-5383
▁accompl	-5384
▁growing	-5385
▁passing	-5386
▁attacked	-5387
▁expensive	-5388
▁discovered	-5389
Don	-5390
hod	-5391
sec	-5392
▁CH	-5393
▁Us	-5394
That	-5395
gent	-5396
resp	-5397
riss	-5398
▁Bon	-5399
▁Dom	-5400
▁Dri	-5401
▁Mul	-5402
▁Vin	-5403
▁fab	-5404
▁pir	-5405
apers	-5406
axter	-5407
stone	-5408
▁Eliz	-5409
▁Kent	-5410
▁Kirk	-5411
▁Need	-5412
▁Plan	-5413
▁bell	-5414
▁cart	-5415
▁deny	-5416
uments	-5417
▁Later	-5418
▁fancy	-5419
▁ordin	-5420
anation	-5421
▁Steven	-5422
▁affair	-5423
▁cheese	-5424
▁guests	-5425
▁points	-5426
▁toilet	-5427
▁wallet	-5428
▁winter	-5429
▁century	-5430
▁courage	-5431
▁uniform	-5432
▁Monsieur	-5433
▁incident	-5434
▁universe	-5435
▁confidence	-5436
▁possibility	-5437
LD	-5438
IGH	-5439
ban	-5440
izz	-5441
ulu	-5442
oted	-5443
pent	-5444
zing	-5445
▁Dar	-5446
▁Ele	-5447
▁bot	-5448
eteen	-5449
▁Norm	-5450
▁Room	-5451
▁Vada	-5452
▁cult	-5453
▁lake	-5454
▁mask	-5455
▁puts	-5456
erable	-5457
▁Child	-5458
▁Doyle	-5459
▁Stone	-5460
▁angel	-5461
▁assum	-5462
▁badly	-5463
▁coinc	-5464
▁minds	-5465
▁scary	-5466
▁solid	-5467
▁Baxter	-5468
▁Miller	-5469
▁easily	-5470
▁Emperor	-5471
▁Getting	-5472
▁Suppose	-5473
▁captain	-5474
▁disgust	-5475
▁lawyers	-5476
▁secrets	-5477
▁younger	-5478
▁director	-5479
▁breathing	-5480
▁extremely	-5481
▁permission	-5482
▁photograph	-5483
aze	-5484
die	-5485
nam	-5486
▁WE	-5487
▁ep	-5488
ague	-5489
ivid	-5490
rade	-5491
vard	-5492
▁Hud	-5493
▁Moz	-5494
▁Mus	-5495
▁deb	-5496
▁gal	-5497
▁pee	-5498
▁reb	-5499
▁Hmmm	-5500
▁Pear	-5501
▁babe	-5502
▁chat	-5503
▁dent	-5504
▁exer	-5505
▁Romeo	-5506
▁Shoot	-5507
▁cloud	-5508
▁tests	-5509
▁determ	-5510
▁Special	-5511
▁challen	-5512
▁members	-5513
▁pleased	-5514
▁victims	-5515
▁Superman	-5516
▁millions	-5517
▁progress	-5518
▁guarantee	-5519
▁attractive	-5520
▁circumstances	-5521
hem	-5522
rig	-5523
sis	-5524
uce	-5525
▁Ru	-5526
▁UP	-5527
ilar	-5528
ique	-5529
rell	-5530
rier	-5531
▁Bus	-5532
▁fal	-5533
▁sem	-5534
abeth	-5535
icate	-5536
▁Book	-5537
▁Clay	-5538
▁Jews	-5539
▁Lots	-5540
▁Pick	-5541
▁Said	-5542
▁crit	-5543
▁gear	-5544
▁rail	-5545
▁stab	-5546
▁thin	-5547
ensive	-5548
▁Ethan	-5549
▁Helen	-5550
▁Mitch	-5551
▁Phill	-5552
▁Ricky	-5553
▁below	-5554
▁bound	-5555
▁influ	-5556
▁model	-5557
sidered	-5558
spector	-5559
▁Fuckin	-5560
▁Nathan	-5561
▁execut	-5562
▁mirror	-5563
▁thrown	-5564
▁carried	-5565
▁counter	-5566
▁passion	-5567
▁perform	-5568
▁Congress	-5569
▁learning	-5570
▁pathetic	-5571
▁unfortun	-5572
▁desperate	-5573
▁emotional	-5574
▁political	-5575
▁considered	-5576
▁performance	-5577
▁sonofabitch	-5578
▁understanding	-5579
5.	-5580
.</	-5581
But	-5582
ril	-5583
...'	-5584
anda	-5585
eman	-5586
have	-5587
real	-5588
vable	-5589
▁Case	-5590
▁Lomb	-5591
▁Name	-5592
▁bang	-5593
▁gall	-5594
▁lets	-5595
▁pist	-5596
▁tits	-5597
▁vote	-5598
▁wide	-5599
▁Craig	-5600
▁Janet	-5601
▁Judge	-5602
▁Karen	-5603
▁Price	-5604
▁analy	-5605
▁cases	-5606
▁frank	-5607
▁grant	-5608
▁metal	-5609
▁sacri	-5610
▁stret	-5611
▁youre	-5612
▁Jewish	-5613
▁Number	-5614
▁proced	-5615
▁repeat	-5616
▁foreign	-5617
▁Princess	-5618
▁memories	-5619
▁spending	-5620
▁direction	-5621
▁Apparently	-5622
▁impression	-5623
St	-5624
How	-5625
phy	-5626
▁Fig	-5627
▁Ooo	-5628
▁Top	-5629
▁fag	-5630
▁lap	-5631
▁tab	-5632
holic	-5633
utter	-5634
venue	-5635
▁Club	-5636
▁Meet	-5637
▁Mine	-5638
▁bail	-5639
▁rope	-5640
▁warn	-5641
ipping	-5642
irteen	-5643
▁Close	-5644
▁Laura	-5645
▁autom	-5646
▁fully	-5647
▁shake	-5648
▁shift	-5649
▁signs	-5650
▁suppl	-5651
▁Dickie	-5652
▁Jeanne	-5653
▁Mozart	-5654
▁guards	-5655
▁loaded	-5656
▁studio	-5657
▁temper	-5658
▁vision	-5659
▁Lombard	-5660
▁foolish	-5661
▁nuclear	-5662
▁pattern	-5663
▁warning	-5664
▁becoming	-5665
▁medicine	-5666
▁reporter	-5667
▁Americans	-5668
▁interests	-5669
▁Federation	-5670
gun	-5671
oom	-5672
▁DE	-5673
ador	-5674
chie	-5675
outs	-5676
pson	-5677
uiet	-5678
▁Wed	-5679
▁bes	-5680
▁bon	-5681
▁dea	-5682
▁eff	-5683
icles	-5684
imony	-5685
ittin	-5686
rison	-5687
▁gate	-5688
inting	-5689
▁Hanna	-5690
▁brand	-5691
▁climb	-5692
▁witch	-5693
▁Heaven	-5694
▁priest	-5695
▁reckon	-5696
▁refuse	-5697
▁tricks	-5698
▁workin	-5699
▁Morning	-5700
▁appears	-5701
▁failure	-5702
▁fishing	-5703
▁traffic	-5704
▁wanting	-5705
▁Gardiner	-5706
▁basement	-5707
▁bastards	-5708
▁divorced	-5709
▁friendly	-5710
▁handsome	-5711
▁recently	-5712
▁Catherine	-5713
▁Elizabeth	-5714
▁available	-5715
▁explanation	-5716
IE	-5717
cho	-5718
who	-5719
▁MY	-5720
▁Po	-5721
ingo	-5722
ival	-5723
seum	-5724
▁Dra	-5725
▁Emp	-5726
▁Hol	-5727
▁Mos	-5728
▁gay	-5729
▁lob	-5730
▁mic	-5731
acher	-5732
ights	-5733
▁Bert	-5734
▁Dian	-5735
▁Doug	-5736
▁bags	-5737
▁educ	-5738
▁qual	-5739
▁repl	-5740
▁Agnes	-5741
▁Faith	-5742
▁Hotel	-5743
▁Susie	-5744
▁Wanna	-5745
▁Water	-5746
▁While	-5747
▁avoid	-5748
▁bread	-5749
▁image	-5750
▁stage	-5751
▁sugar	-5752
▁trace	-5753
inating	-5754
▁Follow	-5755
▁Friend	-5756
▁Louise	-5757
▁Sailor	-5758
▁assure	-5759
▁batter	-5760
▁parano	-5761
▁robber	-5762
▁season	-5763
▁slowly	-5764
iversity	-5765
▁Frances	-5766
▁Jessica	-5767
▁parties	-5768
▁changing	-5769
▁entirely	-5770
▁terribly	-5771
▁throwing	-5772
▁whenever	-5773
50	-5774
UN	-5775
?!!	-5776
?--	-5777
mar	-5778
tra	-5779
▁NE	-5780
▁du	-5781
cred	-5782
rugg	-5783
year	-5784
▁Bas	-5785
▁Ned	-5786
▁Rub	-5787
▁sen	-5788
allas	-5789
▁Buck	-5790
▁Expl	-5791
▁Fore	-5792
▁Free	-5793
▁Thel	-5794
▁Viet	-5795
▁beam	-5796
▁path	-5797
▁prec	-5798
▁sale	-5799
▁tast	-5800
▁thee	-5801
▁vers	-5802
▁Being	-5803
▁Brian	-5804
▁Brook	-5805
▁Chick	-5806
▁Whose	-5807
▁range	-5808
▁thumb	-5809
▁Albert	-5810
▁Boston	-5811
▁Dallas	-5812
▁exchan	-5813
▁goddam	-5814
▁princi	-5815
▁shrink	-5816
▁stairs	-5817
ervation	-5818
▁Whoever	-5819
▁charges	-5820
▁contain	-5821
▁illegal	-5822
▁someday	-5823
▁surface	-5824
▁dreaming	-5825
▁elevator	-5826
▁schedule	-5827
▁Otherwise	-5828
▁assistant	-5829
▁bothering	-5830
▁community	-5831
▁remembered	-5832
eer	-5833
ggy	-5834
iar	-5835
roc	-5836
sie	-5837
▁Ol	-5838
This	-5839
ifer	-5840
plex	-5841
some	-5842
ulse	-5843
▁CIA	-5844
▁Met	-5845
▁aim	-5846
▁anx	-5847
▁ves	-5848
belie	-5849
ropri	-5850
ublic	-5851
▁Says	-5852
▁bein	-5853
▁fasc	-5854
▁fate	-5855
▁loan	-5856
▁male	-5857
▁meal	-5858
▁nigg	-5859
▁toss	-5860
▁Lemme	-5861
▁Women	-5862
▁brown	-5863
▁demon	-5864
attered	-5865
▁Shelly	-5866
▁assass	-5867
▁casino	-5868
▁higher	-5869
▁regard	-5870
▁vessel	-5871
▁bullets	-5872
▁cleaned	-5873
▁enemies	-5874
▁healthy	-5875
▁release	-5876
▁village	-5877
▁National	-5878
▁arranged	-5879
▁checking	-5880
▁convince	-5881
▁experien	-5882
▁ordinary	-5883
▁authority	-5884
▁confident	-5885
arn	-5886
ugs	-5887
gain	-5888
nine	-5889
oret	-5890
rely	-5891
tail	-5892
umps	-5893
▁Ang	-5894
▁Reg	-5895
▁nor	-5896
▁veh	-5897
arian	-5898
fifty	-5899
inson	-5900
xygen	-5901
▁Bern	-5902
▁Coun	-5903
▁Fall	-5904
▁Greg	-5905
▁Mack	-5906
▁Sort	-5907
▁desp	-5908
▁hits	-5909
▁publ	-5910
▁unit	-5911
▁Natur	-5912
▁Pearl	-5913
▁argue	-5914
▁clown	-5915
▁cruel	-5916
▁holes	-5917
▁liter	-5918
▁lover	-5919
▁notes	-5920
▁stake	-5921
▁Twelve	-5922
▁border	-5923
▁commer	-5924
▁cowboy	-5925
▁virgin	-5926
▁Florida	-5927
▁Heather	-5928
▁confess	-5929
▁current	-5930
▁cutting	-5931
▁engaged	-5932
▁murders	-5933
▁shoulda	-5934
▁Security	-5935
▁assholes	-5936
▁directly	-5937
▁champagne	-5938
▁transport	-5939
▁Commission	-5940
▁compliment	-5941
▁conference	-5942
▁reasonable	-5943
▁grandfather	-5944
,'	-5945
rem	-5946
sit	-5947
IGHT	-5948
away	-5949
ello	-5950
gery	-5951
inos	-5952
pert	-5953
rett	-5954
uate	-5955
xual	-5956
▁Kim	-5957
▁Yup	-5958
ician	-5959
irsty	-5960
isher	-5961
istry	-5962
osing	-5963
▁Otis	-5964
▁libr	-5965
▁wand	-5966
colate	-5967
vernor	-5968
▁aside	-5969
▁blast	-5970
▁crook	-5971
▁motor	-5972
▁ships	-5973
▁walls	-5974
▁Barnes	-5975
▁Commun	-5976
▁caused	-5977
▁philos	-5978
▁stands	-5979
▁thrill	-5980
▁Central	-5981
▁chasing	-5982
▁counsel	-5983
▁disturb	-5984
▁systems	-5985
▁trained	-5986
▁unhappy	-5987
▁Starling	-5988
▁Excellent	-5989
▁miserable	-5990
▁recommend	-5991
▁confession	-5992
▁eventually	-5993
▁protection	-5994
AK	-5995
So	-5996
vo	-5997
hab	-5998
ora	-5999
vey	-6000
▁Ce	-6001
▁Da	-6002
▁LA	-6003
▁Ni	-6004
amps	-6005
ange	-6006
ibly	-6007
ural	-6008
walk	-6009
▁FOR	-6010
▁Ohh	-6011
▁Rad	-6012
▁swe	-6013
▁unp	-6014
uable	-6015
ulous	-6016
▁Lake	-6017
▁Lois	-6018
▁Oper	-6019
▁arch	-6020
▁bury	-6021
▁deck	-6022
▁dime	-6023
▁pity	-6024
render	-6025
▁Forty	-6026
▁Kevin	-6027
▁began	-6028
▁enter	-6029
▁habit	-6030
▁jokes	-6031
▁motel	-6032
▁opera	-6033
▁plate	-6034
▁Andrew	-6035
▁Virgin	-6036
▁button	-6037
▁depend	-6038
▁effort	-6039
▁leader	-6040
▁ninety	-6041
▁retire	-6042
▁However	-6043
▁respond	-6044
▁theater	-6045
▁treated	-6046
▁bleeding	-6047
▁nonsense	-6048
▁officers	-6049
▁politics	-6050
▁shopping	-6051
▁stealing	-6052
▁advantage	-6053
▁excellent	-6054
▁satisfied	-6055
▁seventeen	-6056
▁intelligence	-6057
hel	-6058
obb	-6059
uch	-6060
burg	-6061
when	-6062
▁Bro	-6063
▁Ill	-6064
▁Set	-6065
icted	-6066
pting	-6067
▁Corn	-6068
▁Kurt	-6069
▁Mass	-6070
▁Pent	-6071
▁Port	-6072
▁cong	-6073
▁outa	-6074
▁pour	-6075
▁Royal	-6076
▁chain	-6077
▁creep	-6078
▁mustn	-6079
▁refer	-6080
▁route	-6081
▁suits	-6082
▁Gentle	-6083
▁Graham	-6084
▁Lester	-6085
▁headed	-6086
▁mister	-6087
▁oxygen	-6088
▁rescue	-6089
▁served	-6090
onscious	-6091
▁Charley	-6092
▁becomes	-6093
▁scratch	-6094
▁sweetie	-6095
▁therapy	-6096
▁trigger	-6097
▁windows	-6098
▁argument	-6099
▁cleaning	-6100
▁hundreds	-6101
▁shoulder	-6102
▁wherever	-6103
▁worrying	-6104
▁Alexander	-6105
▁Jacqueline	-6106
IR	-6107
ga	-6108
ales	-6109
clus	-6110
jack	-6111
keep	-6112
rial	-6113
sequ	-6114
ship	-6115
uick	-6116
▁Bay	-6117
▁Dem	-6118
▁Lex	-6119
▁Liz	-6120
▁Rex	-6121
▁Suz	-6122
▁joy	-6123
▁nap	-6124
▁Hunt	-6125
▁Matt	-6126
▁bars	-6127
▁bone	-6128
▁cats	-6129
▁diss	-6130
▁mole	-6131
▁nick	-6132
▁shel	-6133
inated	-6134
▁Diane	-6135
▁Jenny	-6136
▁Lucky	-6137
▁Sugar	-6138
▁false	-6139
▁ranch	-6140
▁sharp	-6141
▁theat	-6142
▁tries	-6143
istence	-6144
jection	-6145
looking	-6146
▁Whatta	-6147
▁fellas	-6148
▁fucker	-6149
▁harder	-6150
▁jumped	-6151
▁nigger	-6152
▁Federal	-6153
▁leading	-6154
▁settled	-6155
▁staring	-6156
▁believes	-6157
▁bothered	-6158
▁counting	-6159
▁instinct	-6160
▁negative	-6161
▁precious	-6162
▁sensitive	-6163
▁embarrassing	-6164
ONE	-6165
ado	-6166
▁Id	-6167
▁et	-6168
Well	-6169
atin	-6170
quis	-6171
rael	-6172
rane	-6173
▁Cos	-6174
▁Doe	-6175
▁Fam	-6176
▁Mem	-6177
▁Rip	-6178
▁bud	-6179
▁las	-6180
▁row	-6181
▁typ	-6182
▁wid	-6183
agine	-6184
antly	-6185
aries	-6186
eller	-6187
ovich	-6188
▁Also	-6189
▁Boys	-6190
▁Inst	-6191
▁Kind	-6192
▁chap	-6193
▁owns	-6194
▁shoe	-6195
▁sore	-6196
▁tiny	-6197
▁zero	-6198
iously	-6199
▁Jamie	-6200
▁Wrong	-6201
▁Wyatt	-6202
▁blown	-6203
▁cheer	-6204
▁delic	-6205
▁focus	-6206
▁gimme	-6207
▁juice	-6208
▁Sheila	-6209
▁Thelma	-6210
▁museum	-6211
▁silver	-6212
▁Claudia	-6213
▁Vincent	-6214
▁journal	-6215
▁journey	-6216
▁parking	-6217
▁routine	-6218
▁sisters	-6219
▁swallow	-6220
▁trusted	-6221
▁warrant	-6222
▁mistakes	-6223
▁treasure	-6224
▁fantastic	-6225
▁Government	-6226
My	-6227
ias	-6228
ket	-6229
▁II	-6230
▁LO	-6231
▁gy	-6232
ader	-6233
asts	-6234
hest	-6235
iber	-6236
iffe	-6237
lder	-6238
life	-6239
ords	-6240
▁Dam	-6241
▁Hun	-6242
▁Ret	-6243
▁Sun	-6244
▁sew	-6245
▁spy	-6246
ansas	-6247
arter	-6248
epend	-6249
maybe	-6250
▁Gale	-6251
▁Herr	-6252
▁Josh	-6253
▁Land	-6254
▁Sing	-6255
▁Thor	-6256
▁Toby	-6257
▁cage	-6258
▁duck	-6259
▁golf	-6260
▁link	-6261
▁tend	-6262
▁virt	-6263
nesday	-6264
▁Devil	-6265
▁Sandy	-6266
▁Terri	-6267
▁badge	-6268
▁holds	-6269
▁lifet	-6270
▁oblig	-6271
▁rocks	-6272
▁stops	-6273
▁altern	-6274
▁anyhow	-6275
▁begins	-6276
▁corpor	-6277
▁engage	-6278
▁highly	-6279
▁humili	-6280
▁myster	-6281
▁smells	-6282
▁Angeles	-6283
▁ability	-6284
▁bargain	-6285
▁conduct	-6286
▁destiny	-6287
▁fashion	-6288
▁package	-6289
▁instance	-6290
▁misunder	-6291
▁stronger	-6292
▁swimming	-6293
▁Inspector	-6294
▁Wednesday	-6295
▁grandmother	-6296
▁personality	-6297
Do	-6298
sa	-6299
bag	-6300
oma	-6301
sch	-6302
▁Ju	-6303
bara	-6304
bows	-6305
hern	-6306
iday	-6307
iven	-6308
izza	-6309
onse	-6310
otta	-6311
▁Alf	-6312
▁Nic	-6313
▁Row	-6314
▁Sel	-6315
▁Vik	-6316
▁dim	-6317
▁nic	-6318
▁pow	-6319
▁tag	-6320
▁tub	-6321
ookie	-6322
▁Dear	-6323
▁Duke	-6324
▁Gall	-6325
▁Hear	-6326
▁Moll	-6327
▁True	-6328
▁asks	-6329
▁corn	-6330
▁dece	-6331
▁fart	-6332
▁gamb	-6333
▁scan	-6334
▁sink	-6335
eopard	-6336
▁Marge	-6337
▁Wendy	-6338
▁forth	-6339
▁helps	-6340
▁squad	-6341
▁Claude	-6342
▁Viktor	-6343
▁infect	-6344
▁raised	-6345
▁resist	-6346
▁review	-6347
▁robbed	-6348
▁strugg	-6349
▁surely	-6350
ropriate	-6351
▁beating	-6352
▁closing	-6353
▁hurting	-6354
▁replace	-6355
▁setting	-6356
▁Robinson	-6357
▁convinced	-6358
▁existence	-6359
▁goddamned	-6360
▁suffering	-6361
▁testimony	-6362
▁particularly	-6363
CE	-6364
ua	-6365
Yes	-6366
den	-6367
uva	-6368
van	-6369
▁Hy	-6370
▁Nu	-6371
adem	-6372
bbie	-6373
gram	-6374
imal	-6375
mail	-6376
ront	-6377
▁Eat	-6378
▁Jos	-6379
▁Pau	-6380
▁Pin	-6381
▁dom	-6382
▁gig	-6383
erved	-6384
ierce	-6385
onica	-6386
ungle	-6387
▁Bast	-6388
▁Beck	-6389
▁Dark	-6390
▁Data	-6391
▁Jeez	-6392
▁Mall	-6393
▁blah	-6394
▁haul	-6395
▁holy	-6396
▁magn	-6397
▁purs	-6398
▁tank	-6399
▁worm	-6400
▁Bible	-6401
▁Julie	-6402
▁Lydia	-6403
▁River	-6404
▁Screw	-6405
▁Youre	-6406
▁conce	-6407
▁curse	-6408
▁fruit	-6409
▁glory	-6410
▁makin	-6411
▁tears	-6412
▁Nothin	-6413
▁Willie	-6414
▁attend	-6415
▁checks	-6416
▁houses	-6417
▁joking	-6418
▁neighb	-6419
▁serial	-6420
▁Fifteen	-6421
▁Imagine	-6422
▁Johnnie	-6423
▁Shouldn	-6424
▁individ	-6425
▁prepare	-6426
▁provide	-6427
▁presence	-6428
▁standard	-6429
▁valuable	-6430
▁According	-6431
▁chocolate	-6432
▁customers	-6433
▁signature	-6434
▁suspicious	-6435
▁embarrassed	-6436
▁instructions	-6437
-1	-6438
MM	-6439
eh	-6440
--?	-6441
aph	-6442
ele	-6443
wor	-6444
aign	-6445
cies	-6446
etic	-6447
illa	-6448
mate	-6449
resa	-6450
▁End	-6451
▁Gib	-6452
▁Gus	-6453
▁Rec	-6454
▁Sau	-6455
▁Sol	-6456
▁fee	-6457
▁lat	-6458
inist	-6459
known	-6460
otton	-6461
ushed	-6462
▁Gary	-6463
▁Lucy	-6464
▁Peel	-6465
▁Post	-6466
▁Rich	-6467
▁cert	-6468
▁dish	-6469
▁fuel	-6470
▁pays	-6471
▁pink	-6472
▁rude	-6473
▁scen	-6474
▁teen	-6475
▁wore	-6476
ulated	-6477
▁Grail	-6478
▁Mayor	-6479
▁Nixon	-6480
▁Sheld	-6481
▁based	-6482
▁faces	-6483
▁noble	-6484
▁occup	-6485
▁pound	-6486
▁wreck	-6487
assador	-6488
ennifer	-6489
viously	-6490
▁Dunbar	-6491
▁Lawson	-6492
▁School	-6493
▁Senate	-6494
▁failed	-6495
▁ghosts	-6496
▁loving	-6497
▁outfit	-6498
▁suffer	-6499
▁tunnel	-6500
▁yellow	-6501
▁ancient	-6502
▁billion	-6503
▁capital	-6504
▁escaped	-6505
▁mystery	-6506
▁revenge	-6507
▁section	-6508
▁Veronica	-6509
▁exchange	-6510
▁fourteen	-6511
▁function	-6512
▁machines	-6513
▁pleasant	-6514
▁separate	-6515
▁stranger	-6516
▁Naturally	-6517
▁intention	-6518
▁surrender	-6519
▁Understand	-6520
▁assignment	-6521
▁successful	-6522
▁coincidence	-6523
If	-6524
nox	-6525
ota	-6526
vir	-6527
▁US	-6528
hips	-6529
mpat	-6530
wray	-6531
▁100	-6532
▁Atl	-6533
▁DAY	-6534
▁Heh	-6535
▁NOW	-6536
▁Pen	-6537
▁Stu	-6538
▁ast	-6539
▁hid	-6540
▁rot	-6541
erick	-6542
▁Camp	-6543
▁Dign	-6544
▁Kiss	-6545
▁Marl	-6546
▁beef	-6547
▁bond	-6548
▁decl	-6549
▁exit	-6550
▁flag	-6551
▁flow	-6552
▁hill	-6553
▁sexy	-6554
▁west	-6555
prints	-6556
▁Drink	-6557
▁Glenn	-6558
▁Homer	-6559
▁Power	-6560
▁coast	-6561
▁depos	-6562
▁marks	-6563
▁thick	-6564
▁wings	-6565
stitute	-6566
▁Africa	-6567
▁Debbie	-6568
▁Parker	-6569
▁Scotty	-6570
▁manner	-6571
▁rabbit	-6572
▁secure	-6573
▁Barbara	-6574
▁Freddie	-6575
▁Mulwray	-6576
▁Stephen	-6577
▁Webster	-6578
▁actress	-6579
▁degrees	-6580
▁proceed	-6581
▁reached	-6582
▁slipped	-6583
▁location	-6584
▁reaction	-6585
▁sentence	-6586
▁thirteen	-6587
▁violence	-6588
believable	-6589
▁happiness	-6590
▁mountains	-6591
▁collection	-6592
▁commercial	-6593
▁commission	-6594
▁intelligent	-6595
la	-6596
wr	-6597
OME	-6598
Who	-6599
Why	-6600
cow	-6601
pal	-6602
umn	-6603
▁LI	-6604
aval	-6605
eaks	-6606
foot	-6607
kind	-6608
moon	-6609
rand	-6610
stal	-6611
▁Cow	-6612
▁agg	-6613
▁lit	-6614
▁sam	-6615
▁une	-6616
inals	-6617
ously	-6618
▁Bond	-6619
▁Ford	-6620
▁Girl	-6621
▁Glad	-6622
▁Jill	-6623
▁June	-6624
▁Kate	-6625
▁agre	-6626
▁cere	-6627
▁clue	-6628
▁iron	-6629
▁soup	-6630
action	-6631
▁Break	-6632
▁Chris	-6633
▁Cross	-6634
▁Light	-6635
▁Mason	-6636
▁adult	-6637
▁bless	-6638
▁boots	-6639
▁jewel	-6640
▁uncom	-6641
▁Course	-6642
▁Israel	-6643
▁Prince	-6644
▁Ripley	-6645
▁Surely	-6646
▁basket	-6647
▁coward	-6648
▁darlin	-6649
▁events	-6650
▁pistol	-6651
▁stroke	-6652
▁struck	-6653
▁useful	-6654
▁warned	-6655
▁Grandma	-6656
▁enjoyed	-6657
▁hitting	-6658
▁trapped	-6659
▁winning	-6660
▁chemical	-6661
▁exercise	-6662
▁national	-6663
▁passport	-6664
▁patients	-6665
▁received	-6666
▁surround	-6667
▁Gentlemen	-6668
▁including	-6669
▁psychiatrist	-6670
OD	-6671
ko	-6672
vi	-6673
ENT	-6674
mma	-6675
ras	-6676
ups	-6677
▁50	-6678
▁Hm	-6679
anie	-6680
cile	-6681
eeze	-6682
mour	-6683
reek	-6684
roit	-6685
then	-6686
▁Luc	-6687
▁Mis	-6688
▁Sea	-6689
▁bri	-6690
▁cri	-6691
▁jet	-6692
▁rip	-6693
enger	-6694
osite	-6695
uther	-6696
▁Slow	-6697
▁Stew	-6698
▁THIS	-6699
▁chew	-6700
▁mart	-6701
▁seek	-6702
ivered	-6703
▁Barry	-6704
▁Vince	-6705
▁asses	-6706
▁dough	-6707
▁eaten	-6708
▁shown	-6709
▁yards	-6710
ressive	-6711
▁Hannah	-6712
▁Marcus	-6713
▁coulda	-6714
▁frozen	-6715
▁horror	-6716
▁joined	-6717
▁mental	-6718
▁mighty	-6719
▁nation	-6720
▁smooth	-6721
▁woulda	-6722
thousand	-6723
▁Detroit	-6724
▁bowling	-6725
▁complex	-6726
▁delight	-6727
▁plastic	-6728
▁privile	-6729
▁useless	-6730
▁Director	-6731
▁Jennifer	-6732
▁delivery	-6733
▁document	-6734
▁football	-6735
▁lifetime	-6736
▁stopping	-6737
▁Obviously	-6738
▁influence	-6739
▁naturally	-6740
▁tradition	-6741
▁background	-6742
RY	-6743
uf	-6744
llo	-6745
▁RE	-6746
essa	-6747
ifts	-6748
imum	-6749
lers	-6750
sers	-6751
▁ARE	-6752
▁CAN	-6753
▁CON	-6754
▁Cad	-6755
▁Cre	-6756
▁Hou	-6757
▁McM	-6758
▁Pay	-6759
▁bay	-6760
▁ing	-6761
▁var	-6762
force	-6763
inate	-6764
uters	-6765
▁Chin	-6766
▁Craw	-6767
▁Much	-6768
▁Sulu	-6769
▁bump	-6770
▁drum	-6771
▁init	-6772
▁nurs	-6773
▁stor	-6774
▁wave	-6775
Course	-6776
ashing	-6777
cisely	-6778
penter	-6779
verend	-6780
▁Chuck	-6781
▁Pleas	-6782
▁Short	-6783
▁Small	-6784
▁alien	-6785
▁frame	-6786
▁grass	-6787
▁lower	-6788
▁pride	-6789
▁skull	-6790
▁Dignan	-6791
▁Freddy	-6792
▁Hitler	-6793
▁Truman	-6794
▁beside	-6795
▁confir	-6796
▁conven	-6797
▁dating	-6798
▁estate	-6799
▁instit	-6800
▁supply	-6801
▁tempor	-6802
▁volunt	-6803
▁Service	-6804
▁reports	-6805
▁sounded	-6806
▁stretch	-6807
ification	-6808
▁Japanese	-6809
▁Virginia	-6810
▁describe	-6811
▁goodness	-6812
▁nineteen	-6813
▁railroad	-6814
▁solution	-6815
▁touching	-6816
▁policeman	-6817
▁individual	-6818
▁newspapers	-6819
▁underground	-6820
gir	-6821
raq	-6822
war	-6823
▁11	-6824
▁bi	-6825
▁tu	-6826
ggin	-6827
mony	-6828
quar	-6829
ties	-6830
▁Jen	-6831
▁Neg	-6832
▁Pan	-6833
▁Vul	-6834
▁ded	-6835
▁nun	-6836
agger	-6837
bitch	-6838
ellow	-6839
guard	-6840
otted	-6841
ribut	-6842
tered	-6843
while	-6844
▁Dean	-6845
▁Iraq	-6846
▁Prey	-6847
▁Roth	-6848
▁Shaw	-6849
▁belt	-6850
▁clin	-6851
▁cris	-6852
▁fare	-6853
▁inch	-6854
▁poem	-6855
▁stew	-6856
▁Blood	-6857
▁Ellen	-6858
▁Julia	-6859
▁Teddy	-6860
▁Truth	-6861
▁Tyler	-6862
▁cells	-6863
▁costs	-6864
▁falls	-6865
▁flash	-6866
▁flies	-6867
▁phony	-6868
▁sucks	-6869
▁takin	-6870
▁toast	-6871
ressing	-6872
▁Avenue	-6873
▁Berlin	-6874
▁adjust	-6875
▁blonde	-6876
▁castle	-6877
▁degree	-6878
▁gather	-6879
▁liquor	-6880
▁steady	-6881
▁strict	-6882
▁territ	-6883
▁Command	-6884
▁Company	-6885
▁Germans	-6886
▁Looking	-6887
▁federal	-6888
▁prevent	-6889
▁darkness	-6890
▁distract	-6891
▁according	-6892
▁underwear	-6893
▁protecting	-6894
xx	-6895
ACK	-6896
bie	-6897
dle	-6898
eng	-6899
ocr	-6900
ois	-6901
▁dy	-6902
dell	-6903
otes	-6904
vate	-6905
yeah	-6906
▁Dew	-6907
▁GOD	-6908
▁Lyn	-6909
▁Tar	-6910
▁coc	-6911
ading	-6912
iable	-6913
ramer	-6914
▁Hill	-6915
▁Live	-6916
▁Pink	-6917
▁Wild	-6918
▁Wind	-6919
▁Year	-6920
▁coke	-6921
▁pupp	-6922
ilding	-6923
▁didnt	-6924
▁fence	-6925
▁giant	-6926
▁ignor	-6927
▁labor	-6928
▁shell	-6929
▁stiff	-6930
▁Bureau	-6931
▁Coming	-6932
▁County	-6933
▁Person	-6934
▁compan	-6935
▁device	-6936
▁filthy	-6937
▁jungle	-6938
▁launch	-6939
▁method	-6940
▁powers	-6941
▁remark	-6942
▁shadow	-6943
▁sucker	-6944
▁sympat	-6945
▁voices	-6946
ications	-6947
▁Harvard	-6948
▁Lampert	-6949
▁article	-6950
▁awfully	-6951
▁cocaine	-6952
▁concept	-6953
▁testify	-6954
▁Brooklyn	-6955
▁Business	-6956
▁Governor	-6957
▁occurred	-6958
▁philosop	-6959
▁supplies	-6960
▁committed	-6961
▁committee	-6962
▁neighbors	-6963
▁University	-6964
▁conscience	-6965
▁disgusting	-6966
esc	-6967
ulf	-6968
-...	-6969
bley	-6970
ffin	-6971
▁Cab	-6972
▁Est	-6973
▁Fle	-6974
▁McK	-6975
▁Rat	-6976
▁flu	-6977
▁lip	-6978
▁ult	-6979
▁vul	-6980
▁zoo	-6981
anish	-6982
craft	-6983
ittes	-6984
verly	-6985
▁Came	-6986
▁Navy	-6987
▁Vice	-6988
▁Viol	-6989
▁alco	-6990
▁cant	-6991
▁cave	-6992
▁defe	-6993
▁hers	-6994
▁lect	-6995
ortion	-6996
▁Board	-6997
▁Gonna	-6998
▁Makes	-6999
▁Shhhh	-7000
▁alley	-7001
▁angle	-7002
▁askin	-7003
▁cared	-7004
▁photo	-7005
▁queen	-7006
▁slave	-7007
▁Austin	-7008
▁Gittes	-7009
▁breaks	-7010
▁editor	-7011
▁planes	-7012
▁satell	-7013
▁struct	-7014
▁Skipper	-7015
▁clients	-7016
▁colored	-7017
▁dreamed	-7018
▁frankly	-7019
▁library	-7020
▁loyalty	-7021
▁remains	-7022
▁homework	-7023
▁honestly	-7024
▁invented	-7025
▁returned	-7026
▁teaching	-7027
▁weakness	-7028
▁creatures	-7029
▁financial	-7030
▁Definitely	-7031
▁possession	-7032
▁yourselves	-7033
EE	-7034
Ne	-7035
'11	-7036
bal	-7037
omy	-7038
ryn	-7039
win	-7040
▁UN	-7041
ivin	-7042
osal	-7043
rake	-7044
rary	-7045
thur	-7046
uest	-7047
utes	-7048
▁Han	-7049
▁McG	-7050
▁gut	-7051
▁rig	-7052
ennis	-7053
herry	-7054
nders	-7055
▁Bank	-7056
▁Evan	-7057
▁Evil	-7058
▁Lind	-7059
▁Pack	-7060
▁Pass	-7061
▁Shan	-7062
▁Shar	-7063
▁Vick	-7064
▁buzz	-7065
▁symb	-7066
iments	-7067
▁Grady	-7068
▁Mikey	-7069
▁Negro	-7070
▁Peace	-7071
▁Stick	-7072
▁banks	-7073
▁basic	-7074
▁limit	-7075
▁lotta	-7076
▁media	-7077
▁minor	-7078
▁moron	-7079
▁penny	-7080
▁spill	-7081
▁spook	-7082
▁stays	-7083
▁steps	-7084
▁whist	-7085
orgeous	-7086
▁Elliot	-7087
▁Kansas	-7088
▁agents	-7089
▁exists	-7090
▁fourth	-7091
▁kissed	-7092
▁packed	-7093
▁polite	-7094
▁rotten	-7095
▁series	-7096
▁stress	-7097
standing	-7098
▁Leonard	-7099
▁Marylin	-7100
▁Meaning	-7101
▁average	-7102
▁consequ	-7103
▁figures	-7104
▁killers	-7105
▁surgery	-7106
▁Minister	-7107
▁Reverend	-7108
▁movement	-7109
▁adventure	-7110
▁delivered	-7111
▁witnesses	-7112
*!	-7113
CT	-7114
Ch	-7115
RA	-7116
sm	-7117
--!	-7118
ige	-7119
lim	-7120
mel	-7121
ooo	-7122
tan	-7123
zed	-7124
▁ly	-7125
beat	-7126
bird	-7127
itan	-7128
race	-7129
udes	-7130
▁Add	-7131
▁Cho	-7132
▁Fer	-7133
▁ped	-7134
▁til	-7135
ament	-7136
berty	-7137
gment	-7138
icing	-7139
usted	-7140
verse	-7141
viron	-7142
▁Alvy	-7143
▁Bear	-7144
▁Edie	-7145
▁Lock	-7146
▁atta	-7147
▁ease	-7148
▁sack	-7149
▁soap	-7150
▁taxi	-7151
▁Deeds	-7152
▁Irish	-7153
▁Simon	-7154
▁comed	-7155
▁frequ	-7156
▁greed	-7157
▁legit	-7158
▁mercy	-7159
▁moral	-7160
▁pizza	-7161
▁rifle	-7162
▁shore	-7163
▁wanta	-7164
▁Arthur	-7165
▁Having	-7166
▁Hudson	-7167
▁Juliet	-7168
▁Moscow	-7169
▁Paulie	-7170
▁dealer	-7171
▁fallen	-7172
▁forces	-7173
▁mechan	-7174
▁prints	-7175
▁profit	-7176
▁supper	-7177
▁washed	-7178
▁wishes	-7179
▁Beverly	-7180
▁advance	-7181
▁balance	-7182
▁contest	-7183
▁species	-7184
▁theatre	-7185
▁torture	-7186
▁Hospital	-7187
▁headache	-7188
▁specific	-7189
▁strangers	-7190
▁considering	-7191
▁organization	-7192
Ar	-7193
ape	-7194
apt	-7195
ipt	-7196
omp	-7197
uls	-7198
▁25	-7199
▁Di	-7200
▁Oz	-7201
▁Pa	-7202
▁pa	-7203
iger	-7204
nell	-7205
sieu	-7206
yard	-7207
▁Bre	-7208
▁Fel	-7209
▁Ian	-7210
▁Jud	-7211
▁Ran	-7212
▁der	-7213
▁rug	-7214
▁wra	-7215
chest	-7216
cover	-7217
every	-7218
osity	-7219
uated	-7220
umont	-7221
umper	-7222
▁Anth	-7223
▁Balt	-7224
▁Gill	-7225
▁Gray	-7226
▁Mant	-7227
▁Many	-7228
▁Told	-7229
▁Yess	-7230
▁aunt	-7231
▁boot	-7232
▁capt	-7233
▁chip	-7234
▁lung	-7235
▁Drive	-7236
▁Elvis	-7237
▁Third	-7238
▁Wally	-7239
▁belly	-7240
▁boats	-7241
▁chase	-7242
▁chose	-7243
▁drill	-7244
▁owned	-7245
▁steel	-7246
ication	-7247
▁Jersey	-7248
▁Kramer	-7249
▁Maxine	-7250
▁counts	-7251
▁flower	-7252
▁former	-7253
▁ignore	-7254
▁option	-7255
▁pushed	-7256
▁remove	-7257
▁sticks	-7258
fortable	-7259
▁Finally	-7260
▁Jackson	-7261
▁citizen	-7262
▁lessons	-7263
▁managed	-7264
▁twisted	-7265
▁whiskey	-7266
▁although	-7267
▁campaign	-7268
▁everyday	-7269
▁opposite	-7270
▁students	-7271
▁Ambassador	-7272
▁investment	-7273
ALL	-7274
eek	-7275
haw	-7276
ito	-7277
upp	-7278
▁Ja	-7279
▁Ta	-7280
ench	-7281
enth	-7282
esis	-7283
esus	-7284
igan	-7285
izes	-7286
odes	-7287
omic	-7288
pedo	-7289
rase	-7290
vity	-7291
▁Dil	-7292
▁Hay	-7293
▁Lad	-7294
▁Lay	-7295
▁Mas	-7296
▁Nap	-7297
▁Wyn	-7298
▁sau	-7299
cking	-7300
ettes	-7301
leans	-7302
ockey	-7303
oting	-7304
ronic	-7305
uster	-7306
▁Buff	-7307
▁Dana	-7308
▁Dest	-7309
▁Kids	-7310
▁Kong	-7311
▁Left	-7312
▁Sign	-7313
▁dawn	-7314
▁doub	-7315
▁hust	-7316
▁pant	-7317
▁reve	-7318
▁wing	-7319
▁wolf	-7320
wright	-7321
▁Gabri	-7322
▁Italy	-7323
▁Party	-7324
▁Trans	-7325
▁alert	-7326
▁couch	-7327
▁estab	-7328
▁opens	-7329
▁shout	-7330
▁solve	-7331
▁union	-7332
▁wives	-7333
▁Chriss	-7334
▁Dennis	-7335
▁Indeed	-7336
▁Intern	-7337
▁Luther	-7338
▁Warren	-7339
▁actual	-7340
▁advise	-7341
▁closet	-7342
▁county	-7343
▁forest	-7344
▁ripped	-7345
▁sheets	-7346
▁Justice	-7347
▁Orleans	-7348
▁Private	-7349
▁Spanish	-7350
▁effects	-7351
▁however	-7352
▁moments	-7353
▁payment	-7354
▁psychic	-7355
▁pushing	-7356
▁reminds	-7357
▁vehicle	-7358
▁yelling	-7359
▁answered	-7360
▁designed	-7361
▁mistaken	-7362
▁offering	-7363
▁paranoid	-7364
▁prisoner	-7365
▁response	-7366
▁salesman	-7367
▁treating	-7368
▁Objection	-7369
▁connected	-7370
▁procedure	-7371
▁promotion	-7372
▁radiation	-7373
▁treatment	-7374
▁revolution	-7375
▁threatened	-7376
"!	-7377
hm	-7378
pa	-7379
aws	-7380
elp	-7381
kee	-7382
lot	-7383
oln	-7384
olt	-7385
pps	-7386
put	-7387
bell	-7388
fits	-7389
iety	-7390
miss	-7391
olds	-7392
shot	-7393
▁Aug	-7394
▁Cam	-7395
▁GOT	-7396
▁Nik	-7397
▁Pic	-7398
▁bid	-7399
▁san	-7400
▁shy	-7401
acity	-7402
agher	-7403
anced	-7404
oster	-7405
point	-7406
stick	-7407
uggie	-7408
uries	-7409
▁Ball	-7410
▁Cuba	-7411
▁Full	-7412
▁Guys	-7413
▁Ruth	-7414
▁Stra	-7415
▁dull	-7416
▁east	-7417
▁eter	-7418
▁exha	-7419
▁forb	-7420
▁heck	-7421
▁melt	-7422
▁neat	-7423
▁rise	-7424
▁sits	-7425
▁tune	-7426
isions	-7427
itched	-7428
orters	-7429
rating	-7430
ushing	-7431
▁Fried	-7432
▁Horse	-7433
▁Inter	-7434
▁Miche	-7435
▁Throw	-7436
▁apple	-7437
▁blows	-7438
▁cable	-7439
▁films	-7440
▁incre	-7441
▁micro	-7442
▁pages	-7443
▁songs	-7444
▁sweep	-7445
▁trash	-7446
▁wrest	-7447
rington	-7448
▁Alfred	-7449
▁Cooper	-7450
▁Couple	-7451
▁Evelyn	-7452
▁Trying	-7453
▁Valent	-7454
▁detect	-7455
▁league	-7456
▁poetry	-7457
▁powder	-7458
▁remote	-7459
▁worker	-7460
▁convent	-7461
▁fighter	-7462
▁helluva	-7463
▁jewelry	-7464
▁lunatic	-7465
▁shotgun	-7466
▁surgeon	-7467
vironment	-7468
▁Brothers	-7469
▁independ	-7470
▁sandwich	-7471
▁Gallagher	-7472
▁Yesterday	-7473
▁depressed	-7474
▁honeymoon	-7475
▁kidnapped	-7476
▁worthless	-7477
▁discussion	-7478
▁pretending	-7479
▁unfortunate	-7480
1.	-7481
ICK	-7482
TIN	-7483
was	-7484
▁Hu	-7485
▁cy	-7486
assy	-7487
draw	-7488
emet	-7489
fice	-7490
idal	-7491
mosp	-7492
onym	-7493
oura	-7494
rior	-7495
▁Arn	-7496
▁Att	-7497
▁Bal	-7498
▁DNA	-7499
▁Ins	-7500
▁Pac	-7501
▁Pra	-7502
▁una	-7503
▁uns	-7504
eless	-7505
press	-7506
▁Band	-7507
▁Cait	-7508
▁Clar	-7509
▁Doll	-7510
▁Done	-7511
▁Dool	-7512
▁Drew	-7513
▁Each	-7514
▁Erin	-7515
▁Knox	-7516
▁Linc	-7517
▁Lula	-7518
▁Neil	-7519
▁Reyn	-7520
▁Used	-7521
▁conc	-7522
▁core	-7523
▁furn	-7524
▁mast	-7525
▁nest	-7526
▁neut	-7527
▁owes	-7528
▁pale	-7529
▁porn	-7530
▁redu	-7531
▁sons	-7532
▁spit	-7533
otchka	-7534
velous	-7535
▁Catch	-7536
▁Guard	-7537
▁Kling	-7538
▁Nancy	-7539
▁Satan	-7540
▁anger	-7541
▁bride	-7542
▁burgl	-7543
▁cripp	-7544
▁gross	-7545
▁intim	-7546
▁mommy	-7547
▁owner	-7548
▁pulls	-7549
▁scale	-7550
▁sides	-7551
▁Vulcan	-7552
▁Wynant	-7553
▁blocks	-7554
▁dumped	-7555
▁intent	-7556
▁messed	-7557
▁perman	-7558
▁trucks	-7559
▁waitin	-7560
▁Anthony	-7561
▁Caitlin	-7562
▁Dickson	-7563
▁Lincoln	-7564
▁Somehow	-7565
▁Stanley	-7566
▁Western	-7567
▁choices	-7568
▁crossed	-7569
▁factory	-7570
▁fantasy	-7571
▁manners	-7572
▁quality	-7573
▁related	-7574
▁retired	-7575
▁shelter	-7576
▁Catholic	-7577
▁Crawford	-7578
▁crawling	-7579
▁entrance	-7580
▁homicide	-7581
▁properly	-7582
▁suitcase	-7583
▁waitress	-7584
▁Christian	-7585
▁computers	-7586
▁religious	-7587
▁conditions	-7588
▁nightmares	-7589
▁imagination	-7590
▁disappointed	-7591
▁transmission	-7592
?.	-7593
ek	-7594
Hey	-7595
She	-7596
car	-7597
non	-7598
urd	-7599
▁ID	-7600
▁Os	-7601
▁ge	-7602
ghed	-7603
wait	-7604
wife	-7605
will	-7606
▁Log	-7607
▁fri	-7608
▁git	-7609
▁glo	-7610
▁pip	-7611
▁sym	-7612
asant	-7613
inity	-7614
itect	-7615
itors	-7616
worth	-7617
▁Bell	-7618
▁Hank	-7619
▁Judy	-7620
▁Pant	-7621
▁Ross	-7622
▁Swed	-7623
▁Weir	-7624
▁epis	-7625
▁fran	-7626
▁item	-7627
▁tone	-7628
▁uses	-7629
hattan	-7630
igence	-7631
please	-7632
▁Knock	-7633
▁Madam	-7634
▁Tower	-7635
▁dates	-7636
▁guilt	-7637
▁hoped	-7638
▁laund	-7639
▁pitch	-7640
▁poker	-7641
▁purse	-7642
▁safer	-7643
▁snake	-7644
▁tempt	-7645
▁toler	-7646
▁wears	-7647
▁werew	-7648
clusive	-7649
fucking	-7650
nothing	-7651
▁Agency	-7652
▁Bridge	-7653
▁Easter	-7654
▁atmosp	-7655
▁bitter	-7656
▁chosen	-7657
▁crisis	-7658
▁escort	-7659
▁hearts	-7660
▁merely	-7661
▁salary	-7662
▁senior	-7663
▁tracks	-7664
▁troops	-7665
▁Vietnam	-7666
▁anxious	-7667
▁digging	-7668
▁drawing	-7669
▁handled	-7670
▁kissing	-7671
▁robbery	-7672
▁shaking	-7673
▁similar	-7674
▁wounded	-7675
formation	-7676
▁Beaumont	-7677
▁Unfortun	-7678
▁Whenever	-7679
▁betrayed	-7680
▁discover	-7681
▁listened	-7682
▁patience	-7683
▁vampires	-7684
▁agreement	-7685
▁buildings	-7686
▁apparently	-7687
▁threatening	-7688
EL	-7689
IL	-7690
In	-7691
SH	-7692
uv	-7693
▁i	-7694
Now	-7695
TER	-7696
ads	-7697
edi	-7698
▁KN	-7699
▁Ko	-7700
ases	-7701
call	-7702
daya	-7703
fied	-7704
odge	-7705
uary	-7706
uded	-7707
uine	-7708
utch	-7709
vant	-7710
vell	-7711
▁Cur	-7712
▁Pow	-7713
▁jun	-7714
▁les	-7715
▁ple	-7716
There	-7717
asing	-7718
lying	-7719
overy	-7720
ppers	-7721
urphy	-7722
▁"...	-7723
▁Bomb	-7724
▁Cold	-7725
▁Cost	-7726
▁Deal	-7727
▁Gosh	-7728
▁Mmmm	-7729
▁Nell	-7730
▁Nort	-7731
▁Rain	-7732
▁Took	-7733
▁Wake	-7734
▁fits	-7735
▁gest	-7736
▁mate	-7737
coming	-7738
oretta	-7739
▁April	-7740
▁Found	-7741
▁Heart	-7742
▁Thats	-7743
▁Yours	-7744
▁achie	-7745
▁acted	-7746
▁dinos	-7747
▁fever	-7748
▁lemme	-7749
▁skill	-7750
▁stall	-7751
▁stare	-7752
achelor	-7753
andoned	-7754
▁Arnold	-7755
▁Auggie	-7756
▁collar	-7757
▁indust	-7758
▁laughs	-7759
▁locker	-7760
▁madame	-7761
▁prayer	-7762
▁punish	-7763
▁rubber	-7764
▁timing	-7765
quarters	-7766
▁Loretta	-7767
▁conspir	-7768
▁helpful	-7769
▁interfe	-7770
▁network	-7771
▁profile	-7772
▁torpedo	-7773
▁version	-7774
▁champion	-7775
▁citizens	-7776
▁meantime	-7777
▁messages	-7778
▁quarters	-7779
▁Ninotchka	-7780
▁Wonderful	-7781
▁attracted	-7782
▁exception	-7783
▁potential	-7784
▁appearance	-7785
▁introduced	-7786
▁scientists	-7787
▁suggestion	-7788
▁technology	-7789
-2	-7790
Mr	-7791
TH	-7792
ba	-7793
God	-7794
box	-7795
kov	-7796
pla	-7797
reg	-7798
riz	-7799
▁AM	-7800
!!!!	-7801
TINU	-7802
They	-7803
acco	-7804
aded	-7805
avik	-7806
hire	-7807
icip	-7808
name	-7809
orse	-7810
ppin	-7811
uous	-7812
upid	-7813
▁Dol	-7814
▁Lab	-7815
▁Sky	-7816
▁Viv	-7817
▁Yan	-7818
▁dat	-7819
izard	-7820
lines	-7821
mouth	-7822
▁Dist	-7823
▁HAVE	-7824
▁Mach	-7825
▁Malk	-7826
▁Nazi	-7827
▁Road	-7828
▁adop	-7829
▁budd	-7830
▁earn	-7831
▁flew	-7832
▁fond	-7833
▁mall	-7834
▁oath	-7835
▁prem	-7836
▁rank	-7837
orable	-7838
▁Dewey	-7839
▁Merle	-7840
▁Psych	-7841
▁Roman	-7842
▁Sammy	-7843
▁basis	-7844
▁enorm	-7845
▁lobby	-7846
▁units	-7847
▁veget	-7848
rection	-7849
▁Barton	-7850
▁Coffee	-7851
▁Empire	-7852
▁Hallow	-7853
▁Saavik	-7854
▁Silver	-7855
▁appeal	-7856
▁belief	-7857
▁column	-7858
▁finest	-7859
▁hyster	-7860
▁nerves	-7861
▁parole	-7862
▁pirate	-7863
▁reveal	-7864
▁sacred	-7865
▁sealed	-7866
▁shitty	-7867
▁statue	-7868
▁urgent	-7869
▁wasted	-7870
ifferent	-7871
▁CONTINU	-7872
▁Comrade	-7873
▁Depends	-7874
▁Genesis	-7875
▁buddies	-7876
▁charged	-7877
▁cleared	-7878
▁fellows	-7879
▁hostage	-7880
▁hostile	-7881
▁options	-7882
▁selfish	-7883
▁sheriff	-7884
▁shields	-7885
▁storage	-7886
▁McMurphy	-7887
▁dressing	-7888
▁fabulous	-7889
▁freezing	-7890
▁generous	-7891
▁gorgeous	-7892
▁princess	-7893
▁studying	-7894
▁Doolittle	-7895
▁Malkovich	-7896
▁Seriously	-7897
▁Somewhere	-7898
▁backwards	-7899
▁challenge	-7900
▁education	-7901
▁practical	-7902
▁publicity	-7903
▁sacrifice	-7904
▁scientist	-7905
▁territory	-7906
▁friendship	-7907
▁construction	-7908
▁Unfortunately	-7909
▁uncomfortable	-7910
IP	-7911
po	-7912
ITH	-7913
arc	-7914
inn	-7915
iro	-7916
oir	-7917
rud	-7918
vor	-7919
▁Fe	-7920
bble	-7921
bled	-7922
etti	-7923
eyer	-7924
grim	-7925
itar	-7926
nels	-7927
oley	-7928
tell	-7929
ynam	-7930
▁Ade	-7931
▁Fox	-7932
▁	-7933
e	-7934
t	-7935
o	-7936
a	-7937
n	-7938
i	-7939
h	-7940
s	-7941
r	-7942
.	-7943
l	-7944
u	-7945
d	-7946
y	-7947
m	-7948
w	-7949
g	-7950
c	-7951
'	-7952
f	-7953
I	-7954
k	-7955
,	-7956
b	-7957
p	-7958
v	-7959
?	-7960
-	-7961
W	-7962
T	-7963
Y	-7964
S	-7965
A	-7966
H	-7967
!	-7968
M	-7969
N	-7970
B	-7971
D	-7972
C	-7973
O	-7974
j	-7975
L	-7976
G	-7977
x	-7978
E	-7979
J	-7980
P	-7981
R	-7982
F	-7983
"	-7984
z	-7985
<	-7986
>	-7987
K	-7988
q	-7989
U	-7990
V	-7991
/	-7992
0	-7993
1	-7994
:	-7995
;	-7996
*	-7997
2	-7998
5	-7999
